// Automatically generated weights for hardware_weights/weights_l1.mem
// Original shape: (32, 784)
// Flattened length: 25088
// Data range: [-0.901987, 0.731877]
// Quantization: Q15 format (scale = 2^15)
//
0008
0001
0005
fffd
fffc
fffe
fffa
fffd
0001
0008
fffa
fff7
fffd
fff8
000c
fffe
0003
fff9
fffb
fff8
fffc
fffa
fff9
0006
fff9
0002
fff5
000a
ffff
0000
ffff
000a
fff5
fff0
ffeb
fff3
fff7
fff2
ffe6
ffeb
ffe1
ffe5
ffff
fff7
ffff
ffe3
ffe4
ffdf
ffce
ffe2
ffe2
ffea
000a
0009
fff9
0003
0005
0007
0005
ffef
ffeb
fff7
ffe3
ffe9
ffe3
fff4
fff2
ffe0
0006
fffd
fffd
fff4
ffee
fff7
fff6
ffd0
ffdb
ffcf
ffd4
ffcf
ffed
0005
0006
fffe
000b
000a
0004
fff5
ffed
fff6
ffea
fff1
ffea
0007
fff6
0003
0008
fffb
ffe7
ffee
ffe6
ffe7
ffe6
fff5
ffe7
ffed
fffd
ffe3
ffdb
fff7
fff7
0002
0009
0003
000a
ffec
ffe8
0005
0000
fff5
ffec
0008
fff6
0009
0008
fffe
fffb
fff6
ffed
fff2
0002
fff8
0000
fff8
ffde
ffed
ffff
fffd
ffe8
ffed
ffff
0009
ffe3
fff5
ffe2
0000
fff2
fff6
ffe8
ffec
ffef
ffed
fff5
fff7
fff6
0001
ffee
fff4
ffe7
ffd9
ffeb
ffe8
0005
fffd
ffea
ffe4
fff7
fff3
0008
fff9
fff1
ffe2
ffeb
fffe
fffd
ffed
ffe7
ffe5
fffd
fffd
fff2
fff2
000e
fff7
ffee
fff5
ffeb
fff7
ffea
ffff
0001
0004
0002
0005
0000
fffc
0007
ffeb
0004
fff0
ffe9
fffc
fff8
ffed
ffdf
fffa
fff2
fffd
fff9
fff6
fffb
fff9
fffc
0003
fff2
fffb
0005
000c
000a
000a
fffe
0005
000d
fffb
000b
0003
0006
ffeb
ffda
ffed
ffed
ffea
ffe3
fffa
fff9
fff2
fff8
fffe
0000
000b
0006
000b
0005
0016
000a
000b
fffd
0001
0008
0017
fff7
fffd
fffa
000d
fff4
ffeb
ffdb
ffda
ffe1
ffe0
ffd8
ffe3
fffc
0001
0008
000a
0015
0012
0015
001a
001a
0018
0006
fffc
0009
fff7
000d
000e
fff0
000d
fffb
0001
0017
fffc
ffde
ffce
ffec
ffef
ffeb
fff3
0000
0003
0009
0009
0015
001a
0015
0017
0011
0014
0012
0007
fff9
000b
0018
0018
0014
0009
fff9
0003
fffd
fffa
ffde
ffda
ffff
ffdc
ffe8
0006
fffa
0015
0013
0008
fff7
0004
0008
0012
0003
0004
fffe
ffef
ffec
fffd
0005
0025
000d
fff1
000a
000c
fffa
fffb
ffd4
ffd3
fff1
fff1
0006
fff9
000c
000d
0022
000f
ffff
0001
fffc
0006
0005
fff9
fff1
ffe2
ffe3
ffbd
ffd5
0002
0014
0002
0001
0004
0006
ffea
ffe1
fff9
fff5
000c
0007
0008
0014
000d
0013
0004
fff6
fff4
fffe
0015
0007
fff2
ffdb
ffc8
ffd8
ffe4
fff7
001b
0022
0007
0009
ffef
0009
fffe
0001
fffb
0006
001b
0015
001e
000d
000f
0003
0003
ffed
fffc
000e
001a
0006
ffe5
ffe5
ffd3
ffe8
fff5
0014
0021
002c
0015
fff5
0002
000f
0020
0009
0013
0017
0018
0009
0014
000e
fffb
0006
ffee
ffeb
0016
001e
0026
fffd
ffef
fff1
ffef
fff2
0003
0018
0017
0028
000f
fff5
0003
0004
0000
001b
001d
0019
001d
0008
0009
fff1
ffff
fff7
0005
0000
0012
001f
002c
ffff
0000
0008
0015
0002
0011
0005
fffe
0031
0012
0003
fffb
0004
ffec
0017
002b
0019
0015
0014
0017
0011
0018
000e
fffd
0014
0030
001b
0010
0013
fffe
000a
0002
fffd
fff5
0000
0017
000b
002d
ffec
fff6
ffef
fffb
001f
001f
001f
0014
000d
0009
0014
0016
ffff
0009
0015
001a
0015
000a
fffc
0003
0012
0013
0010
0012
0009
000b
0008
001c
0006
000d
fffa
0004
0007
0013
000a
0003
000b
0014
0008
fffc
0000
fffd
000b
000d
0012
0000
0013
0004
0012
000b
0003
0004
001c
001f
000c
000b
fff9
000b
0006
fffd
0005
0009
fffd
0009
000f
000b
0003
0001
0002
ffec
ffef
fffa
0006
0006
0007
0018
0006
0004
fff7
fff0
001b
0022
0005
0003
fffd
000b
0002
ffff
0019
0007
fff1
ffe8
fffa
fffd
ffec
ffe7
ffdd
ffe9
ffe2
ffe4
ffee
ffed
0002
000b
000f
0001
fff5
ffff
0013
0014
0009
fff6
fff9
ffff
fffb
0002
0001
ffff
fff8
fff3
ffef
fff5
ffe8
ffe8
ffe5
ffea
ffd9
ffdb
fff6
fff9
fff7
fffe
0006
0008
fffa
fffe
0019
0014
000f
0002
fffc
fff9
fff5
fff2
000c
fff3
fff4
fff4
fff3
ffe8
fff1
ffe7
fff2
ffe3
fff7
ffea
fffa
ffe7
fff7
ffe6
fff5
fff2
ffeb
fffd
0018
001d
0021
fff9
fff8
fff8
fff9
ffe7
fff2
fffa
ffe2
ffe6
ffd9
ffe3
ffeb
ffe2
ffee
fff2
fff3
fff1
ffdb
ffef
0004
fffa
fffb
0001
0009
fffb
0020
001c
000c
fffe
000a
fff9
fff0
0018
0020
0018
ffeb
ffe7
ffef
ffdf
fff4
fff1
ffe3
fff4
ffeb
fff5
ffec
ffea
ffec
ffe1
ffeb
0002
000c
0014
001d
000a
0013
0002
fff9
0002
0008
ffff
fff8
0003
ffec
ffe9
ffe6
ffee
ffeb
ffe6
ffed
ffe1
ffdd
ffed
ffe3
ffd6
ffdb
fff2
fff5
ffe2
ffec
ffe7
fff0
000d
fffc
fff6
ffff
fffb
fff7
ffff
000c
0017
ffff
0000
fffe
fff8
0002
ffe6
ffe8
fff0
ffed
ffe6
fffa
ffe7
ffe2
ffe3
ffea
ffe9
fffa
0008
fff7
fffd
fff8
fffe
0007
fff6
0003
fffb
0004
0007
0005
fff8
fffc
0008
0006
0007
0008
0009
fff7
0005
fffe
0008
fffd
0008
0007
fff9
0002
000a
ffff
fffd
fffe
0006
fffd
fff6
fffd
0000
0007
0005
0001
0007
ffff
0002
fff6
fffb
0004
000a
fff3
ffec
fff6
fff6
0009
0006
fff7
fff6
fff6
0007
0008
0008
0007
fff5
000a
fff6
fff9
fff7
0002
fffa
fffa
0011
0004
fff4
ffef
ffe2
fff5
ffce
ffc4
ffcc
fff4
fff8
0004
0006
fff2
fffb
fffb
fffa
fff9
ffec
0001
0002
fffc
0001
0003
ffff
fffc
0005
0006
000f
0017
0009
0007
ffff
0002
0014
000d
0001
fffc
fff9
fffc
0004
0015
0002
0001
0002
0005
0004
fffe
0000
fff7
fff7
fff8
001e
fffb
fff0
fff9
fff9
fffd
ffff
0010
001c
000e
fffe
0009
0012
fffc
0011
0011
000d
ffff
0003
000b
000d
0015
0012
000a
fffa
0007
fffc
fff0
0011
fff0
ffe9
fff1
fffd
fffd
0012
0009
000b
0006
fffd
0002
0005
0015
000d
000e
0013
001a
0011
001d
000b
0004
001d
000f
ffec
fffa
000b
0008
fff7
fff2
fffc
fffe
fffc
0002
0007
000c
0014
000d
001c
000e
000f
0007
0014
0010
0018
000b
000f
0014
0023
0020
0010
ffff
fffa
0002
001f
fff4
fff8
fff4
0005
fff3
0002
0012
000e
0011
000c
000a
0011
0016
0018
0016
0004
0013
0009
ffff
0014
000a
001f
0016
0012
001c
fff8
fff9
ffe9
fff1
ffff
ffee
fffe
fffe
0002
000b
0014
0008
0001
0012
000a
ffff
0001
001a
0014
000e
0017
0007
000d
0011
000d
0017
001a
001f
001f
fffa
ffe6
0008
fffb
fff2
fffd
000b
0015
000f
000d
0016
0003
000c
fff9
fff2
fffb
fff7
000b
fffe
fff8
fffa
0002
000c
0010
0019
002d
0004
0001
fff9
ffe1
000f
0001
000f
fffa
0015
0004
0011
0009
0002
fffc
0005
0003
fffa
ffec
fff4
fff2
0001
fff6
0003
fff8
fff0
fff1
0015
001d
0011
fff6
ffec
ffd7
fff2
0008
001e
fff7
0006
ffff
ffff
0003
fffc
0000
fff8
0009
000f
fffe
fff0
fffd
ffee
fff6
ffd7
ffdf
ffd6
ffd1
ffec
000b
0020
fffa
fff1
ffd9
ffe6
0001
fffe
fff7
fff6
fffa
fff2
fff4
0006
fffc
0014
0012
0019
0001
fff8
fff3
0001
ffe9
fff3
ffe8
ffce
ffc8
ffda
ffec
0011
ffe9
0001
ffeb
ffe5
000d
ffee
ffe9
ffef
000a
fff6
fff7
fff7
0001
000a
0015
0014
0001
fff4
ffea
0004
fffe
fff3
ffeb
ffe7
ffea
ffe5
ffe9
ffff
fffc
000a
0000
ffd9
ffe9
ffea
ffde
ffef
ffea
fff7
fffe
0000
fff0
000c
0009
000b
fff5
ffed
fff7
fff3
ffe8
fff1
ffe9
fff5
fff1
fffe
ffe0
fff2
fff8
0000
0000
ffe8
ffdd
ffe8
ffe9
ffe5
ffea
0001
0001
fffc
000a
0009
0007
fffa
ffe6
ffed
ffed
fff5
fff8
0004
fffe
fff4
000a
0012
fff3
ffe7
fff3
fffc
000e
fffe
0002
0005
ffeb
ffda
ffda
ffe2
fff4
0006
0005
0019
000a
fff4
ffe4
ffee
ffed
fffd
0000
fff7
0006
0005
0017
001b
ffd9
ffea
0009
ffff
0016
fffa
002c
0008
ffed
fff3
ffd5
ffe3
ffe3
fffe
ffff
fffd
fff1
ffd3
ffe2
fff1
0002
0002
000c
0009
0002
0001
0006
fff5
ffcb
ffcd
0006
0008
000f
fff5
0028
0017
000d
000d
fff5
ffe9
ffee
ffe6
ffe8
ffe4
ffe7
ffe1
ffea
0005
0002
ffff
000e
000c
0003
000f
0010
fff8
ffd5
ffd3
ffee
fffe
fffb
0009
0014
000c
001d
0028
0007
0003
ffe7
fff7
fff8
fffc
fff6
ffed
fffd
fff5
0001
000e
0004
000d
0018
0010
0014
0006
ffda
ffdf
fff0
fff7
0000
ffff
0003
0016
0028
001d
0007
0008
0007
fff9
fffe
0007
0012
0000
0008
0008
000c
0009
0005
0014
0014
0014
001c
ffea
ffef
ffde
000e
0003
000c
0000
000c
0017
000d
0012
0012
000f
0008
0005
000c
000b
0014
000d
0005
0016
0015
000a
0006
001c
001e
0020
0012
fff6
fff5
0006
fffc
0003
0003
0007
001f
0011
0003
fffb
0004
fffe
000f
0002
001d
0016
001c
0019
001d
0017
0012
0006
0005
000f
fffb
0020
0029
fff0
fff2
fffa
fffc
0007
0008
0016
0022
001c
0027
001c
000b
001e
0023
002a
0022
0013
0019
0016
0019
0010
0017
fffe
ffff
000d
000a
000e
0021
000a
fff2
ffef
fffb
0005
000b
000d
0021
0019
000a
0018
0022
0021
0023
0020
0026
0027
0021
0024
0024
0013
0014
0005
0003
fff9
fffb
001e
0014
0011
ffe1
fffb
fff7
0008
fff7
000e
0005
fff7
0003
0020
0015
000d
001b
0012
0004
001e
001a
ffff
0013
001e
000c
fffc
0018
0006
0008
0013
0015
0020
ffff
0004
fffd
0007
0009
fffd
fff4
0005
0009
fffe
ffea
ffe5
fff8
fffa
001b
0014
0004
fffd
0007
fff8
fff0
fffb
fffe
0000
fff7
0006
0015
0004
0001
0006
fff6
fff5
0003
fffa
0002
fffa
ffff
fff9
fff3
ffe3
ffe4
ffe2
ffe2
ffe2
ffd9
ffe7
fff5
fffc
ffd7
ffe2
ffe3
ffe7
fff2
fff5
0006
0004
ffff
fff8
0000
0005
fffb
fffd
0000
fffc
ffff
0000
0006
fffd
0004
fff5
0000
0004
000f
0000
fffc
0005
0000
fffa
fffa
fff8
ffff
0009
fff9
0002
0003
fffd
0007
0001
fff7
fff7
0001
0004
ffff
000a
ffef
fffa
fffc
fff0
0011
0007
000f
000c
001e
0020
001a
ffeb
ffef
fff3
ffef
fffb
0001
000a
0003
fff8
0002
fff7
fffc
fff4
0008
0008
fff7
fff2
fff8
ffea
fffa
fffa
fff2
0015
0023
0018
001c
0017
fffd
ffff
fffb
fff9
ffe5
ffe7
ffe9
fff1
fffd
0003
ffff
fff9
000b
fff6
0006
fff9
fff4
ffef
ffe6
0004
fffc
fff0
000f
001a
001d
0030
0029
0023
001e
0003
ffff
ffff
ffe8
ffcf
ffd9
fff0
fffe
fff0
fffa
fff8
0002
000c
000b
fff7
fffc
ffeb
fff0
fff8
000f
000c
000a
0004
0013
0020
002f
0028
001b
0014
fffa
ffef
ffd1
ffe3
ffd7
ffca
ffdd
0000
fff6
fff8
fff9
0006
000e
fffe
fffe
fffa
fff7
fffa
fff6
0005
0002
fffa
0015
001a
001b
0015
0002
ffff
fff6
fff4
ffff
fff2
ffea
ffc0
ffd4
ffed
ffe1
fff7
0009
ffee
001a
fffe
0009
fffe
fff5
ffff
ffff
fffe
fff7
fffb
0005
000a
0016
0013
0013
001f
0015
0002
001e
000f
ffe6
ffc6
ffba
ffdd
ffe9
fffd
fffc
fff6
0005
000a
fffd
fffd
0001
ffe9
fff3
fff4
fff0
fffc
fff5
0011
0016
001a
0021
0023
0021
0010
000d
0009
0007
ffde
ffd6
ffd4
ffea
0003
0015
fffa
0000
fff1
ffef
0001
0001
ffef
fffb
ffea
ffde
ffe8
ffe7
0019
001e
0030
0018
0029
0018
000f
0015
0015
fff8
ffe6
ffc4
ffda
fffc
fffd
0012
0000
fffe
fff2
ffed
0001
fff0
fff4
fff1
fff9
ffdf
ffe1
ffe9
000e
002b
0031
0028
001f
0020
0011
0002
0007
0013
ffeb
ffcf
ffc7
fff1
fff8
0011
0013
0017
ffdb
ffe6
ffeb
fff6
ffee
ffec
fff4
ffe7
ffef
ffee
000d
001c
0026
0014
000e
0007
0005
0012
0025
0013
fff9
ffeb
ffcc
0017
0008
fff7
fffa
fff2
ffe4
ffe8
ffe7
fff0
0001
fff8
fffb
0006
fff0
ffe8
0004
0004
fffe
000f
0004
0019
0018
001a
001e
0010
0001
fff0
ffe3
0014
0006
fff2
fff0
fff7
fffd
fffa
fff6
fff2
fff4
fffc
0010
0000
fffa
ffe3
fffc
fffb
ffed
fff3
0000
0014
0022
0005
0011
0008
fffd
ffe7
ffd2
fff7
0015
fff6
fff5
fffb
0014
0001
0008
0005
000b
0002
000a
0000
ffed
fff0
ffec
fff1
ffec
fff7
0004
0009
0003
0012
fffa
0001
0011
ffde
ffd8
0002
fff6
0004
0006
fff3
ffff
0004
000c
0017
0002
0001
fff7
0000
0001
fffe
fff9
0002
fff1
0002
ffff
0017
0017
0015
0010
0012
000b
ffea
001b
0011
fffb
0017
ffe3
fff5
000c
0021
000f
000d
ffff
0001
fff5
fff0
ffee
ffec
fff2
fff0
fff2
fffb
0005
000d
0015
0001
0007
0015
0015
fff8
fff8
0009
000f
0017
0009
0009
0029
0019
0006
ffff
0002
0007
0005
fff5
ffec
ffe6
ffe5
ffef
fff4
fffb
fff0
ffff
0002
0003
0000
fff8
0000
ffe9
fffc
001a
fffe
0022
fff6
0005
0024
0001
0002
fffc
0007
fff8
fff0
ffe9
ffe7
ffe9
ffec
ffef
ffff
0001
fff8
0007
fff1
0007
000a
fffc
0000
0011
0017
0012
0016
0017
ffeb
0003
000a
0005
fffd
fff0
fffc
fffe
fffc
fffb
ffeb
fff8
fffc
0005
fff9
000f
0000
0002
fffb
0005
0005
fffc
fff3
0022
0027
0013
0007
000a
fffc
0001
0005
ffff
0000
0002
fffd
ffff
ffff
ffff
0010
001d
0009
fffb
0005
000a
0006
0014
0004
0003
0002
000a
000f
0017
0023
0009
ffff
0009
ffec
fff6
0010
0005
0007
0001
0004
0000
0004
0009
001a
0022
0010
0002
0002
0008
0004
0004
0000
0002
ffff
0005
0013
000c
001e
ffff
0010
0005
fff3
0019
000a
000a
000d
0001
fffe
0003
0009
0005
000d
0002
ffff
0005
fff6
fff3
0002
fff6
ffff
fff4
ffe5
fff8
001a
000f
0018
fffa
0004
0004
fff1
000b
fff5
0014
0004
0013
000e
0012
0001
fff7
0001
0008
000c
0006
fffd
fff6
fff8
ffea
ffeb
fff1
fff7
ffff
0002
0012
0017
0007
000b
0001
0007
fffe
ffea
0000
000d
0017
0004
0016
0013
0010
000d
0015
fffd
000a
fff6
0003
ffea
ffe8
ffd4
ffe4
fffd
ffde
fff4
0008
0016
fffa
fffe
fffb
000d
0011
0031
000e
0014
0015
ffff
0008
0011
000c
000b
000a
0002
000c
fff7
000a
ffe4
ffde
ffd9
fff2
0004
fff2
0009
0010
fffb
0005
000a
fff8
001a
ffef
0012
0038
001d
0018
002a
001c
fffe
000a
0014
0007
fffc
ffed
ffe0
ffcb
ffd6
fff2
ffff
0013
0014
0015
000c
0008
fffe
fffc
fffc
fffb
0009
0015
0021
002d
0046
0047
002d
0033
0042
0024
0018
0015
0026
001c
0014
000a
000b
0009
0011
0020
ffff
fffe
fffa
fff6
fff9
0006
0008
fff7
0003
0003
ffee
ffef
000e
000e
0008
0016
0028
0011
0019
0015
001f
0019
001a
0004
0005
0006
000e
000b
0014
0009
0006
0005
0009
0003
000a
000a
0001
fff9
fff7
0000
0003
fffe
fff9
0009
0000
fffe
fffe
fff4
fffc
0005
0004
fffa
fffc
fff5
0005
0007
fff9
fff7
fffe
0002
0007
0004
ffff
ffff
fff8
0009
fff8
fffe
0006
000c
0003
fffe
fff1
0001
0002
ffe9
000b
001e
0003
000c
0007
0003
fffa
0004
fff9
000a
0002
fff9
000b
0007
0005
0000
fff6
fffc
ffef
fff2
ffef
fffa
fff5
fff7
0014
0008
0002
0000
fff3
000c
ffe9
fff0
fff8
ffe5
ffe8
fff0
fff6
0001
ffff
0007
0002
fff7
ffff
ffff
000b
000f
fffe
fffe
0003
fff3
fff2
ffee
ffe9
ffe6
fff3
fffc
ffe3
ffce
ffcf
ffcf
ffc7
ffc7
ffdb
ffd7
ffdb
ffef
fffa
0007
fffc
0002
0003
0008
fffa
fff1
000e
001e
0006
0004
0016
000c
fff4
fff6
0009
0009
ffee
ffe2
ffd0
ffc6
ffd5
ffd4
ffd3
ffdb
ffe2
ffe4
fff6
fffb
0021
0010
0005
0005
0009
0014
0024
0021
0004
000f
0005
000e
000d
0005
0005
000c
ffff
fffc
ffeb
ffd3
ffe0
ffd2
ffd1
ffe8
ffe5
ffec
fffc
0002
0003
fff7
fff8
fff6
fffd
000b
0008
fffd
001b
000e
000d
001e
000a
0007
000d
0009
0003
fff4
0008
0004
fff4
ffd3
ffd8
fffc
fff9
0003
fff7
fff9
000a
fffc
000b
fff7
0006
0010
0009
ffee
0011
0007
0008
000e
0015
fffe
000d
0015
0013
000e
0011
0000
fff6
ffe2
ffdf
ffea
ffef
ffe0
ffee
fff2
fffd
fff6
000e
001b
ffff
0006
001b
0007
0011
000c
0009
0009
0013
0007
0008
001a
001d
0011
0007
0001
ffff
ffdf
ffe2
ffd3
ffe7
ffd5
ffed
ffe1
fffe
ffee
0008
000d
0006
0021
0013
0017
000c
0002
0001
0002
000a
0008
0017
0013
002f
001f
0013
0010
fff7
ffe0
ffd9
ffd2
ffda
ffd0
ffe7
fff1
0007
0007
0000
0016
0016
0018
000a
001e
0010
0003
fffd
0003
0016
0007
0002
0022
0026
0020
0021
0011
0006
ffef
ffd0
ffd4
ffeb
ffdd
fff2
fff6
0012
0013
000f
0011
0013
0008
000d
0013
0018
000f
fffb
0002
0002
0012
ffff
0014
002c
0015
0011
000f
000d
fffb
ffe5
ffd6
ffec
ffe5
ffef
fff8
fff2
000e
fffa
0005
001e
fffb
0012
000f
fff8
0009
fffc
fffe
fff0
fff2
ffec
fff3
001d
001d
0011
0018
001b
fff6
ffd1
ffd9
ffef
ffe6
fff5
000b
0013
0006
0006
0016
0019
0005
0013
000a
fff3
ffef
ffed
fff0
ffe9
ffe4
ffee
fffd
001d
000c
000a
0014
0012
fff2
ffd6
ffe0
fff9
0006
0018
0011
0019
0002
ffef
000b
001b
000d
ffff
ffe3
ffee
ffe2
fff2
fffa
fff7
fff5
ffe9
fffc
0004
0007
0013
0009
0011
fff6
ffe4
fff0
000f
0022
0014
000d
002d
0019
fff4
fffb
0012
000f
0002
ffe8
ffda
ffe8
ffed
fff0
fffb
fffb
ffed
000b
0010
ffff
000b
000e
fffc
fffb
ffef
0004
0005
0009
ffff
0005
0017
0015
0002
fff8
000f
0009
0001
ffe0
ffde
fff2
fff8
ffef
0001
ffed
0000
0000
0016
000d
000f
fff8
fff6
fff2
fff1
0009
0003
fff3
ffee
fff6
0018
0004
0003
fff1
0001
ffec
fffd
fffc
ffdd
ffcb
ffe2
ffee
ffec
fff8
fffa
0014
0015
0009
fff3
fffb
ffef
ffea
0004
fff4
fff4
ffed
ffff
001f
0020
001c
0017
fff5
0007
fffe
fffd
0003
ffd8
ffd0
ffc9
ffe3
fffb
fffc
fffc
000c
0008
000c
fff0
fffc
fffa
0007
0005
fffd
0007
ffe6
fff6
0018
0027
0022
0009
0004
000a
fff7
fff0
fffa
ffea
ffdd
ffd3
ffe7
fff6
0006
0013
0017
0013
0002
0001
fffb
0010
000b
0009
fff5
fff5
fff1
fff6
0016
001e
000e
fffa
0000
ffec
ffe5
fff3
ffe2
ffec
ffe6
ffe8
fff4
0000
000e
0018
0012
000e
000a
0000
fffc
fffa
0007
0016
0003
fff6
fff0
0019
000b
0023
fffd
0002
fff6
ffef
fffa
fffc
ffd3
ffcc
ffe1
fffc
fff2
000f
000a
000d
0008
0006
0007
0001
fff9
fff2
0006
000b
fffa
ffe6
0008
0007
0019
0012
0003
0005
fff9
ffff
fffb
fffb
ffdf
ffe4
ffe6
ffee
fff4
0000
fff0
0006
0004
0012
000b
0005
fffa
ffff
fffc
0004
fffa
fff5
fff3
0004
000e
0009
0001
fffb
0003
fff0
ffe3
ffee
ffd7
ffd8
ffee
ffdc
fff9
fff2
fff9
0011
0019
0004
000e
fff3
fff1
fff8
000c
fff9
fffa
0007
fff6
0008
000a
000a
fffc
fff7
fff5
fffc
ffeb
ffec
ffec
ffe2
ffde
ffda
ffd4
ffec
ffea
ffff
fffc
0006
0006
fffa
fffe
fffa
0002
0007
fff7
fff2
fff9
0015
000f
0019
ffff
0003
0004
fff7
fffa
0007
fff7
fff0
fff7
fff5
ffdd
ffd9
ffe8
0001
0009
0008
0005
0008
0009
fff8
fffc
fffa
ffff
fffb
ffee
fff2
0013
0004
fffc
fff9
0001
0001
0007
fff1
ffff
000a
000d
0018
0004
0004
fff5
0007
0001
0016
ffff
000a
000d
0015
0010
000c
fff0
0003
0012
0005
ffff
0002
0006
0000
0004
0001
fffc
0006
0007
001a
0016
0010
fff8
000f
0005
0007
0018
000b
0000
fffa
000a
000c
0017
ffef
fff8
fff5
ffff
0007
fff6
0008
0003
0008
0009
ffff
fff7
0008
fff9
fffb
fffc
0005
fffa
0000
fffb
ffed
fff6
000f
fffd
fff6
fffd
fff8
000a
fff8
0004
0000
fff8
fffd
0000
0009
fffc
fff7
0005
0006
0005
fff5
fffe
fff3
ffee
ffef
fff0
ffe3
fff1
fff5
ffed
ffdb
ffe5
ffe7
fff3
fff0
fff1
ffd7
ffe7
fff4
fff0
fffd
0002
fffd
fff9
fffa
fffb
0001
ffe9
ffeb
fffc
ffe9
ffe2
fff7
0009
000f
000b
0003
ffeb
0012
fff8
ffde
fff0
ffe6
fff4
fff0
0007
ffe9
ffe0
fffb
0002
fffe
000b
0004
ffff
fff4
ffde
fffb
0007
fffb
ffed
0001
0013
0003
0022
0009
000c
0012
0016
000f
0003
fffc
ffee
fff8
0003
000b
ffff
ffea
ffff
0003
0002
0004
000a
0008
ffeb
0007
0000
0002
0003
000f
0019
0025
001e
0022
002e
001f
0010
0013
0004
0008
0006
000c
0008
fffb
fffc
ffed
ffef
ffff
001c
0004
0009
fff9
fff8
0013
ffec
0004
000d
0020
0011
000d
0017
0021
0016
0021
0018
001d
0018
0014
0017
0007
0000
fff7
ffe9
fff8
000f
fffe
000e
0004
0010
fff0
0009
0015
fffc
0005
0013
000d
000a
0009
0002
000a
0007
ffff
0006
0002
0002
fffe
000b
fff6
fffa
fff5
0004
fff3
0002
0007
0003
fff3
fff5
0007
000d
0029
0017
000f
0011
0010
0009
fff7
0004
0007
0008
fffd
fff8
fffe
0003
0005
ffff
fffb
0001
0008
0008
000a
0000
0008
fff6
0003
fff1
0011
0013
0022
0021
000f
0009
000b
000a
000e
0009
0002
fffe
ffee
fff8
fffa
fff6
fff7
0000
fffc
fffd
fffe
0005
fff7
0002
000f
fff9
fff0
ffeb
000c
000d
000c
0018
0005
0002
fff7
0005
0003
ffff
fff9
fff3
ffe9
ffee
ffea
ffff
fff6
0005
0013
000a
0004
0013
ffec
fffa
fff4
ffee
fff3
fff8
ffec
0000
000b
0004
0007
0004
fffc
fff9
0005
fffd
fffd
ffea
fff0
ffdf
ffec
fffb
0005
0006
0006
0016
0012
000d
ffe6
ffdb
ffe8
ffe8
fff7
fff0
ffea
0013
fffb
0009
0009
000a
0016
001f
0011
0010
ffff
ffe3
ffd2
ffe1
ffee
ffee
0005
0018
000a
0007
0000
fffb
ffe5
ffda
ffe0
ffeb
ffee
fff8
ffea
0001
ffdb
fffb
0002
000b
0016
0012
001e
0015
0000
ffe6
ffdf
ffeb
fffd
0005
0001
001f
001c
0020
000d
0009
0039
0009
ffd8
fff1
fff3
0007
ffe9
0005
ffd8
0002
000e
000c
000e
0013
000d
001c
0000
fffa
ffeb
0007
0018
0006
0015
001e
000f
000b
0022
0024
001a
0022
0006
0007
ffec
ffee
fff2
fffa
fff9
0012
0010
0004
000d
0003
0013
0018
0008
ffff
0002
0015
000d
001e
000b
001d
0007
0009
0002
0008
000a
0029
001c
001a
ffef
ffec
001c
0003
fffe
0011
fffd
000f
0002
0012
0006
0012
0005
0005
0020
0022
001f
0012
000b
0001
0005
fffa
0009
0003
001c
0033
0022
0013
fff6
fff0
0018
000a
fff5
fff8
000b
0012
0011
0010
0018
000a
0017
0010
0016
001d
0015
001c
0007
000e
000c
000f
0003
001e
000a
003b
0022
0008
0003
ffe1
001a
000b
0002
fffe
0002
000a
0009
0017
0012
0011
0016
0015
000e
001a
0025
0009
0005
fffc
fffd
0011
000c
0012
000f
0010
0009
ffff
fff8
fffa
000d
0011
0015
ffff
0001
0008
0007
0002
fffd
0005
001c
001a
000d
000a
000f
fffc
0000
0000
0004
0005
0007
001b
000c
0004
fff4
000c
0001
0013
0001
000a
000b
0003
fff7
000a
0001
0000
0009
000b
0000
000f
0012
000c
ffff
0007
fff8
fff9
0008
0010
000d
0000
ffef
fffa
001c
0004
fff5
0014
0019
001c
0019
000b
fff7
001b
0003
fffa
0005
fffc
0004
000c
0001
000d
0002
0000
0002
fff2
000f
0017
0009
0005
ffe0
ffd7
0003
fff2
0002
0009
0026
0025
0012
fffc
0003
0003
0006
0011
000b
000b
000f
0001
ffff
fffb
fff7
0000
0007
000a
fff9
fff8
0013
000b
ffe1
ffe9
0019
ffff
0001
0006
001f
001f
fff6
fffc
000f
000f
0011
000d
0010
001c
0018
0014
ffff
000c
0007
ffff
0003
000b
0002
000e
0007
fff8
fff5
ffed
fff7
fffd
0008
fff9
0007
fffc
0004
fff0
fffd
0005
000a
0012
0010
0014
fffd
0008
0004
000e
000b
0004
0016
0017
0007
002a
0004
fff1
ffeb
fff4
ffe0
fff6
0009
fffb
fffd
ffec
ffdc
ffe5
0004
0004
fff9
000d
0002
000d
0013
000d
001b
0007
0015
0002
000e
0006
fffa
0011
fffe
ffe9
fff6
000e
0006
fff8
ffff
0006
0002
ffe8
ffdc
ffd3
0002
0000
fff2
fff8
000c
fffe
fff5
0003
0015
0009
0003
fff6
ffe7
ffe4
ffd8
ffcb
ffdb
ffec
ffcd
fff9
000c
0007
0003
000b
0005
fffa
ffed
ffe3
ffd3
ffd2
ffe7
ffe3
ffd1
ffe0
ffdc
ffda
ffbc
ffce
ffb8
ffc5
ffdd
ffd4
ffba
ffae
ffde
fff2
ffec
0005
0004
fff9
fff6
0007
fff6
000a
0008
0007
ffed
ffec
ffef
ffe6
ffce
ffd6
ffe5
ffdc
ffd0
ffdd
ffd9
ffe2
ffe2
fff4
ffea
ffe8
fff1
ffff
0004
0008
ffff
ffff
fffa
0004
fff9
fff7
0000
0000
fff8
fff8
fff7
0002
ffff
0000
000a
000a
fff4
fff9
fff9
0007
0008
0005
0009
fffb
fffa
0005
0003
0005
0000
0009
0000
fffd
fffd
fff9
fffa
fffe
001a
000b
0006
0015
0014
0014
001a
0021
002f
0026
0030
0040
0025
0026
0013
000f
0007
001a
fff6
0001
0008
fff6
0003
000a
000e
0002
0014
000d
0018
0021
0003
ffea
fffe
0016
fffd
0024
0015
002f
0036
002a
0030
0035
0020
001d
002f
002b
0016
0001
fff9
0002
fff7
ffff
000a
000d
0005
ffe4
ffec
000b
fff2
ffe6
fff0
fff7
fffc
0020
0022
0012
0013
0013
0026
0035
0022
0017
001b
001a
0022
0017
0006
0009
fff9
fffa
ffec
0000
fffd
ffee
fff9
ffef
ffe8
fffb
0008
fffd
0005
0008
000f
0016
0005
0006
000b
0007
fffb
001d
000a
001b
000e
0022
001c
0002
0002
0009
0013
ffe1
ffe7
0005
fff3
fff9
fff8
0005
0006
0006
0010
0008
0013
0010
000d
000f
0015
0011
0009
0005
0022
002a
0020
0021
0016
000d
0000
fffa
fff9
ffda
ffd1
ffeb
fff5
fff5
0004
0008
0008
000e
0005
0017
0020
0011
001f
0018
0024
0023
0022
0017
001c
0014
002a
0039
0023
0005
0002
fff5
fff1
ffd7
ffbf
ffdb
ffea
fffa
0018
0010
0016
0016
0010
001d
0023
0024
0012
0015
0015
0010
0029
001c
0006
0011
001a
0033
0032
fffb
000b
000e
fff1
ffe0
ffc5
ffea
0002
fff2
0008
0006
000b
001b
001e
0016
000d
000a
fff2
fff2
fff5
fff3
0004
000c
fff2
fff2
0001
0001
0016
0009
fff7
000f
fffd
000d
fff1
ffe2
fff9
0005
0005
0002
0010
0020
000a
0005
ffef
ffd0
ffc2
ffba
ffb6
ff9e
ffaf
ffaf
ffc7
ffc9
ffe7
ffdf
000a
0009
fffe
fff8
fff8
0009
ffeb
fff3
fffd
0003
ffff
0009
000f
0000
fffe
ffff
ffcc
ffc6
ffd2
ffca
ffc1
ffa2
ff98
ff8d
ff8e
ffb1
ffd9
ffe2
0006
0004
000a
0007
fff5
ffef
fffb
fff4
0011
000e
000b
fff4
fffc
fff7
fff8
ffe7
ffe9
ffe9
0003
0005
fff3
ffd9
ffd7
ffb7
ffb7
ffb5
ffd0
ffdf
fffc
0012
000b
0008
fff2
ffe5
fffa
0000
000b
0003
0009
ffeb
0000
fff7
ffe8
ffe7
fffb
fff6
0004
0016
000f
0000
fffa
ffe6
ffdf
ffe1
ffe4
ffd3
0004
0011
000e
fffb
fffc
fffd
0004
fff9
fff8
0001
ffff
fff8
fff9
fffc
fff1
fffd
0002
0004
0003
0010
0009
000f
000a
fff5
ffea
ffef
fff7
ffeb
0001
fffb
0011
0009
0008
ffe6
fff4
fffd
fff9
0003
0007
fff8
0001
fff9
ffe8
fff0
fffa
0004
0016
0003
0018
000b
001b
0004
0001
0012
0013
fffa
ffea
ffee
0001
fffd
ffec
ffe9
ffec
ffdf
fff6
0004
0009
fff2
fffd
ffee
fff1
fff5
fffe
000e
0005
0016
0014
000b
0012
0009
0006
fff3
0012
000f
ffe0
fff4
0003
fffc
fff4
fffa
0003
ffe7
ffe8
fff7
fffd
fffe
0002
0009
ffeb
ffe9
000a
0007
fff9
000e
000a
000a
000e
fffa
0001
fff8
0006
fffc
ffdf
fff6
0002
000d
ffe5
000e
0001
fff5
fffd
0000
0004
fff5
0002
fffd
ffeb
ffe9
0016
0009
fffa
0009
0014
0000
0004
0006
fffe
fffb
0002
fffe
fff4
ffde
fffe
fffc
fff7
000f
0010
0001
0005
fffb
fff9
0003
ffff
fff7
ffda
ffdb
000c
000b
000c
0007
0006
0001
0008
000b
ffeb
fff1
fffe
fff3
ffe9
ffec
000a
ffeb
0006
001a
0016
000b
000a
fff5
fffb
fff6
fff2
fff5
ffdf
ffe4
0007
001a
000d
0004
0007
0011
0003
fffa
0004
000c
0018
0005
ffdf
fffd
0006
ffe1
fffd
0014
0018
0011
000e
fffb
fffe
0006
0003
ffed
ffec
0004
0015
0007
0015
0015
0003
0014
000f
fff8
000c
0006
0025
0028
ffea
0000
fff9
ffee
ffd3
fffc
0017
0016
000d
000e
001d
0003
0003
fffc
0005
0005
000c
001e
000e
000b
0009
0004
0014
0017
0007
0010
0025
0013
fffa
fffa
fff7
fffb
ffe4
fff2
0013
0013
0006
fff9
0001
fffc
fffd
0003
fffa
0004
000e
0009
000e
0001
0006
fffc
000f
0006
0004
0009
0000
0000
0012
fff8
fffb
0004
fff9
0006
ffec
fffe
fff4
ffe7
ffe7
ffe0
ffeb
fff0
fffd
fffd
000e
0010
0006
fff5
fff5
fff8
0007
fff9
0009
0020
0009
0001
0017
0006
0002
0008
fff8
0009
0000
fff3
fff4
0001
ffec
fffa
0000
0005
0005
0004
ffff
fffb
0001
fffb
0000
ffff
0009
000e
001d
0015
ffe7
ffe5
fffb
0009
fffe
0004
fffb
0006
ffee
ffeb
ffea
ffeb
ffe5
fffd
fff3
000f
000f
000e
0001
fff5
0003
000d
000c
000b
0011
0021
0011
0020
0014
fffb
0001
fffd
fffe
0008
0009
fffc
fffa
0003
fffe
0007
0018
001f
000d
000f
0010
0024
004b
0023
0036
0023
0025
001f
0022
002f
0024
0011
0007
fffe
fff9
fffc
ffff
0007
fff9
0009
0006
fffa
fffe
fffa
0006
fffd
0007
ffff
0002
0001
0026
000c
000f
001c
0013
0009
fffc
fff9
fff6
fffb
0000
0003
000a
fffd
0000
0007
0007
0003
fffd
0009
0000
fffe
0006
0007
0005
fffa
0002
000a
fff8
0008
0009
ffff
0004
fffd
0007
fffc
0009
fffb
fffc
0004
fff5
0000
fffe
fffb
fffb
0008
fff9
0006
0003
000a
fffc
fff7
fffd
000a
0003
fffc
fff6
fff5
000a
0006
0005
fff8
0007
0006
ffff
fff9
fffe
0001
fff7
0007
fffa
000b
fffe
0007
fff8
ffff
0007
fff6
0009
fff9
0000
0005
fffc
0005
0008
0002
fff5
0008
fff5
0003
fff6
0003
fffa
0003
fff9
0001
0007
fffb
000b
0004
fff9
0005
fffc
0007
0005
fffe
000b
0001
0004
fff7
ffff
0000
000a
fffc
0006
fff6
ffff
0007
0007
0007
fffa
0000
fff9
0004
0006
0007
fffb
0008
0002
fff5
0007
fffc
0008
fffe
000b
fff7
0003
ffff
fffc
fffd
0001
0008
000a
0007
fff8
000a
0001
0003
fff5
fff7
0008
fffb
fffa
000b
fffd
ffff
000a
0009
fff6
fff6
fff7
fffc
fff7
fffa
0002
0005
0000
0000
0001
fff5
0004
0004
fff8
fffa
fffe
0004
fff8
0006
0004
fff9
fff8
000a
000a
fffe
0005
fffd
0001
fffd
0009
fff9
fff9
fff8
0006
0006
fffc
fff7
fff5
0002
fff8
ffff
fff6
0009
fff9
fffb
fff9
000a
fffb
fffd
fffd
fffc
fffb
0008
fffc
0001
0002
0005
0000
fff5
000a
fff9
fff5
fffa
fffd
0002
0002
fff9
fff8
0004
fffc
0005
fff7
fff8
0004
0009
0001
0004
fff6
fff4
0000
fff9
0001
0004
000b
fff5
fffe
0004
0004
0007
fff7
0004
0001
0001
0004
fffc
0003
fffc
0003
fff8
0005
0003
fffd
fffe
fff9
0000
0006
0004
0009
fff8
0005
0009
fff7
fffe
fffa
0007
0005
fffb
0004
fff7
fffc
0007
0004
0007
fff9
fffa
0002
fffc
fffa
fff4
fffe
fffa
0004
fff9
000a
fffa
0001
fffd
fff5
fffb
000a
0008
fffc
0006
0001
000a
fffa
fff8
0007
fffc
0003
fff9
fff9
fff5
0007
0004
fff8
fff6
fff8
fff7
0002
0006
fff6
fffe
0008
fff8
fff8
fff6
0001
0009
0009
fff9
0001
0002
0007
fff9
fff6
0000
0006
fffb
fffa
0001
0003
fff5
fff5
fffc
ffff
fffc
fffb
000b
0009
fff5
fffb
0003
0008
fffb
fffc
fffa
fff4
fff7
0001
0000
0000
fffc
fffb
fffb
0001
fffc
fff5
0001
fff5
fff9
0006
fff8
000a
000a
0006
0004
0009
0004
0000
0000
000b
0003
0009
fff8
0002
0001
fff8
0000
fffe
0005
fffb
fff8
0005
fffe
fffe
0006
fffc
fff8
fffc
fff6
0005
fff7
0009
fffa
0007
fff8
fffe
fff9
fffe
0002
0000
ffff
fffb
0003
0003
0001
0003
0007
0005
ffff
fffd
0008
fff6
fff9
0000
0000
0001
fff5
ffff
0005
0001
0003
0008
000b
0008
fff6
fff7
0001
0001
0002
fff6
fffe
ffff
fff6
0001
0001
0005
fffa
0000
0005
0002
fffe
fffe
0004
fffe
fff8
0005
0002
fff8
0003
fffd
0006
fff8
fffc
0007
fff5
0007
fffc
0003
0003
0008
fff3
0003
fff5
0008
fff4
0003
0007
fff7
fff5
fffb
fff4
fff6
fff9
fffe
fffc
ffff
0004
0007
fff8
fff6
0004
fff9
ffff
0002
0007
fff7
0004
0004
fff9
fffb
0003
0001
0002
0008
fff7
fffc
fffc
fff9
fffd
0002
0009
0002
fffd
fff9
0006
0008
fffe
fff7
0007
fff5
0000
0008
fffe
fff6
fffb
0004
fffa
0007
0004
fff4
0002
fff6
fff7
0006
0009
fffc
0006
fff4
0005
fff5
0004
0005
0003
fffe
fffd
fff9
fffc
fff5
0003
fff7
fff6
0000
0006
fff5
fff4
fffa
fff6
0001
fffc
0000
0001
fffe
fff9
0007
0006
fffd
0008
0003
fff7
fffd
0007
0004
0003
0000
fffb
fffb
fff7
0008
0006
fffc
fff9
0004
fff7
fffb
ffff
ffff
fffa
0000
0005
fffa
fff7
fffb
0007
0002
fffa
0005
fff9
0007
fff7
0008
0007
fffb
ffff
fff9
000a
fff7
000b
0002
fff4
0002
0006
0007
0005
0006
0000
fff5
fff5
ffff
fffd
fffc
0000
fff5
fff9
fffb
fff9
000a
fff8
fff9
0001
fffe
0005
ffff
0007
0002
fffb
0004
fffd
0000
fff7
fff6
fff9
fff7
fff9
fff9
0001
fff8
0001
fff6
fff6
0003
fff7
0003
0000
fffb
0004
0000
0000
0001
0002
0001
fffb
0005
0003
fffe
0009
0009
0009
0009
fff8
fff9
0006
fffe
fffd
0008
fff7
0002
fff7
0006
fff7
fffd
fffc
0003
0006
fffc
0008
fffd
fffe
0008
fffd
fffc
ffff
0003
0005
0000
0003
fff7
0008
0008
fff9
fffd
fffb
0006
fffb
0001
0001
fffc
0006
0001
0006
fffd
000a
0001
0009
0009
ffff
ffff
0009
0009
0009
fffe
0004
fffe
0001
000c
0001
0001
000a
fffd
fffe
fff6
fffe
0003
fff8
0002
0000
0001
0005
fff9
000a
fff7
ffff
0000
0006
000a
0001
fffe
ffff
fff8
fffa
000a
000b
fffb
fff8
fffe
0007
0004
0007
fffe
0009
0004
0002
0009
0009
fffc
0003
fff5
0007
fffe
0009
0009
0000
ffff
0002
0008
0001
0009
ffff
fffb
fffb
0004
fff7
0004
0003
fffb
fff9
0004
0008
0002
fffb
0000
0000
0009
fffc
0007
0009
0006
0006
0008
0005
fff7
000b
000b
fff9
0000
0002
fff8
0001
fff9
000a
0005
fffc
0001
fff6
000a
0002
fff7
0001
0009
fffb
0005
fffe
000a
fffc
000b
fff6
fffe
fffc
0004
fff9
0007
0003
fff1
ffe7
fff5
0002
0007
ffef
0004
fffa
ffff
0007
fff1
fff1
0016
001e
0007
0001
ffed
ffea
fffe
fffc
ffff
fffb
0002
0000
000a
fffc
0000
0005
0007
fff6
fff3
fff6
fffb
0008
fffa
0003
0000
fffd
0007
0010
001f
0013
0016
000d
0017
fffb
0002
0000
fffa
0006
0006
fff6
ffff
ffed
000c
0004
0004
0016
ffff
fff1
000a
0001
0004
fffb
fff2
0007
0008
0001
0011
fffe
0009
0009
000f
0013
fff7
ffef
ffea
0009
0004
fff7
0016
001a
0021
0024
0011
fff5
0014
0000
0004
0009
0000
0007
000c
0004
0013
0002
fffa
000a
0015
0008
0010
0012
0010
0009
0021
0010
fff8
0004
001c
0018
001a
0024
001f
000e
0009
fffd
ffed
ffff
0002
0009
000d
000a
0012
000f
fffd
fffb
000d
0010
0009
0007
0018
0017
0020
0014
000b
0008
fff3
0004
001c
000c
001c
0005
fffd
0005
0001
fffa
0002
fffe
0003
ffff
fff6
fffc
ffee
0004
0002
fff1
0001
0010
0017
001e
000f
000f
0007
001d
fffa
000f
0018
0006
0005
0012
fff7
0009
fffa
fff5
ffee
ffeb
ffe8
fffe
fff2
ffff
fffd
fff1
fff5
0006
ffff
000d
0007
0008
0011
fffd
0004
001c
ffff
0027
0019
0010
0008
000e
000a
fff6
fffc
ffec
0003
fff8
fff4
fff3
fff4
fff6
0000
fff9
0005
fff9
0011
fffc
0000
0019
0025
0014
0008
0015
0004
0009
0013
fffd
0003
0007
0001
fff5
ffe8
fff6
ffed
000e
000b
0004
0012
0001
fff7
000a
000c
0013
000c
0002
0005
0029
0027
fff5
000a
0012
fffa
000c
001b
ffeb
fff0
0002
fff2
ffee
fff1
fffb
000a
0020
001a
0011
0006
0002
0009
0002
fffd
fffb
0004
0007
0007
fff9
0003
fffe
0018
000a
0023
002c
0011
0005
fffa
0002
fff9
fff6
000c
0000
0018
0025
0025
0012
000b
fffc
fff8
0001
fff2
ffec
fff4
fffa
0011
fff9
0010
000a
0007
000a
0010
0028
0006
fffd
fff6
0002
fffb
fffc
0007
0001
001e
001e
0021
001e
001b
0007
fff6
0005
fffa
ffe5
ffe2
0006
fffd
ffeb
ffdd
0007
0004
fffc
0015
000f
0001
fffe
0003
fff3
fff0
fff4
fff9
0009
0001
0003
0015
0024
0021
000e
fffb
fff8
ffff
fff2
ffe2
ffec
ffe5
ffdf
ffe3
fff2
000a
0011
0017
001d
0009
0011
fff9
ffe5
ffec
fffc
ffe9
fff9
0003
0008
0014
001d
0007
fff8
fff8
fffc
fff3
fff9
ffdd
ffe4
fff6
fff1
ffcf
ffef
0003
000a
001e
000d
0009
fff7
fffb
0000
fff1
fffc
ffe4
ffec
ffef
0009
001e
001d
ffff
fff4
fff6
000b
fff5
0004
000b
fff5
ffea
fff7
ffe5
fff0
0008
0006
0011
0007
000b
fffd
0003
fffd
fff7
fff3
ffea
fff2
fff2
0013
0022
0019
0009
ffeb
fff9
0006
0004
fff8
0005
0002
fffa
ffe3
ffee
ffed
0000
0023
0007
0012
fffb
fffe
0000
0001
ffee
fff4
ffec
fff1
fffc
001a
0021
000b
0007
0004
fff2
0007
0006
0001
fff9
000e
ffef
ffcc
0004
ffe0
fffb
000d
000d
000a
0002
0004
0003
fff1
ffef
fff4
fff4
fff6
0013
002c
0011
0012
0001
0004
0003
ffff
0009
ffff
fff5
fffb
ffdd
ffcf
0003
fff5
000e
fffd
fff7
0002
0002
fffd
000c
ffef
fff9
0000
fff6
fffe
0001
001d
0011
000c
000f
0000
0007
fffc
fff4
0002
fff1
fff5
ffe9
ffd7
fff3
fffb
ffff
fff2
ffe9
ffe9
fff5
ffec
fffe
fff6
0004
0000
fffc
fffb
0009
0008
001c
000f
0000
000d
fffc
fff1
0001
fffe
fffc
fff2
ffe5
ffdd
0000
0000
0010
001b
ffee
ffe0
ffff
fff6
fffe
ffff
0006
fff5
fff9
0008
0001
0005
0017
000b
0006
000d
0005
fffd
0007
fff4
fff1
ffce
ffdc
ffd9
ffeb
0005
000d
000d
ffea
ffde
fffe
0009
0006
0007
fff4
ffee
0008
fffc
fffc
fffe
0010
001b
0008
000d
0008
0001
fffe
fff1
ffe1
ffdd
ffe2
fffb
0006
fffb
0002
0005
0019
fff6
000b
0008
fff6
fffc
fff4
fffb
0000
fff5
0006
fffe
000f
0013
000e
0003
fffe
0001
fffd
ffe0
ffc6
ffd5
ffde
ffe3
0014
0004
0003
000b
0006
0020
ffff
fff7
000a
fff5
fffc
0009
fffe
0000
0004
fffd
0003
0000
fffd
ffed
ffed
000c
fff4
ffd8
ffda
ffd2
ffd2
fff7
0002
fff7
fffa
fffb
fff9
0009
fff2
ffef
fff9
fff1
fff4
000d
0008
0008
0008
0002
ffe7
ffed
ffe5
fffb
fffc
001a
000e
fffb
fff4
fff6
0003
0004
fffe
0004
ffff
fff8
fffd
ffec
ffe8
ffe8
ffe0
ffde
fff8
fff7
fff3
fff5
ffdd
ffd4
ffb4
ffd3
ffe3
ffef
ffef
fff4
fff3
ffe3
fff7
0009
0002
000f
0009
fff8
000a
fffa
0002
fffe
0016
001a
fffe
fff3
0005
ffe9
ffe6
ffdf
ffeb
ffe9
ffe7
ffe6
fff7
fff4
ffee
fffd
fffa
fff5
0008
ffff
fffb
0007
0004
0003
fffc
fff8
fffd
0005
fff6
0007
0007
000a
0004
fffb
000b
fffe
0004
0007
0005
0002
0002
fffb
fff9
fffc
fffd
0009
0006
fffd
0006
0003
0003
fff8
0000
fff8
0006
fff9
000b
0010
0013
0015
0014
0020
0013
000b
0008
0008
0007
fff4
ffef
ffff
0026
0018
0020
001e
0018
001a
0000
0002
fff7
0006
fff6
0008
0004
ffef
fffe
000c
001a
001b
0017
0015
001f
003a
002a
0004
001b
000f
0000
0012
0008
0011
0012
0029
0028
0028
000e
fffa
0009
0005
fffd
fffb
000f
000a
0007
000a
000f
0001
0004
fffc
fff3
fffb
fff6
ffef
fff3
ffeb
fff9
fff0
0004
0010
0000
001c
0013
0011
000b
fff9
000f
fff9
fff5
fffc
fffa
fff0
fffd
fff0
fffd
fffb
fff9
ffff
fff8
fff1
fff5
fff5
fff9
0001
fff7
0006
fff8
0011
000e
0011
001d
0029
0010
000c
fff1
0005
fffb
fff7
000c
ffda
ffff
fffd
fff3
fff0
0008
000a
0016
0007
0014
fffd
fffc
fffb
fffa
000a
0001
0004
fffe
0000
fffe
0012
000d
fff9
ffeb
fffe
fffc
ffeb
0012
ffed
0000
fffd
ffeb
0005
000d
0009
fffc
0007
0002
fffe
fffe
0002
fffc
ffff
fffb
fffb
fff3
ffe8
fff1
0004
0005
0000
0002
fffe
fffc
ffe6
0008
ffe7
fff2
0003
000b
000b
000b
000e
000b
0001
fffb
fffd
fff6
fff7
0003
0007
fff9
0000
fff8
fffd
fff3
ffed
0006
0002
0015
ffff
0003
ffec
000b
ffea
fffc
fffe
000b
fffc
0015
000b
0005
fff9
ffee
ffe9
fff1
fff7
ffeb
fff5
fff7
fff8
fff1
ffef
fff0
fff8
000c
0000
0003
ffec
fffd
fffa
fff3
fff2
ffef
fff4
0000
0001
000a
0005
0007
0012
ffef
ffd9
ffdb
ffed
ffdf
ffe4
ffe5
ffda
ffe2
ffe0
ffe0
ffd9
0003
fff3
fff9
0015
0005
fffc
ffe6
ffe4
fff1
fff4
0001
0008
000f
0012
0017
fffb
fff5
ffdc
ffd3
fff1
ffed
ffe1
ffe4
fff5
fff2
ffe2
ffdd
ffed
fff5
0013
0003
ffef
0000
fffd
fff8
ffd9
ffd9
fffa
fff9
0011
0013
0014
0018
000b
0000
ffef
ffed
0007
0011
000d
0006
0008
000b
0002
ffef
fff2
ffe4
fff4
ffd9
0005
0004
fffc
0000
fff6
fff6
ffec
000c
0018
0011
0007
000b
000e
fff8
ffee
ffff
0008
0019
000b
0014
000d
0012
0005
000d
fff2
ffed
ffec
ffe4
0007
fff6
0004
fff7
ffdc
fffb
ffff
fffc
000c
0008
000d
0017
0010
0006
ffff
fffc
0011
0018
0007
0013
0007
0017
0013
0001
fffe
ffef
ffec
ffdd
ffea
000a
fff7
ffe9
fff3
0009
000f
000d
001d
000a
0008
0006
001b
0009
fffd
fff4
fffd
001c
001e
0011
0019
0013
000b
0014
fffc
ffdd
ffec
ffd0
fffb
000c
0002
fff7
fff9
0000
0001
000b
0001
0003
000c
0012
0014
000a
ffea
fff7
0003
0011
0016
000e
000c
0007
fffe
ffff
fff6
ffdd
fffa
fff8
ffe3
0003
0003
fffe
fff2
fff4
fffb
0008
fffd
0012
fff4
0009
0010
fff3
fff6
ffe9
0013
0024
0023
000b
0010
0010
0007
ffef
fff2
fff0
0007
ffe8
fff1
fffb
ffeb
fffc
ffe5
ffe5
fff4
fffd
fff4
0006
fff8
0001
fff8
ffea
fffc
000c
0010
000e
001a
0019
000a
ffff
fff0
fff2
fff1
fff3
0023
fffe
ffe8
0005
ffed
ffff
ffeb
ffe8
fff6
0005
0003
fffa
0001
ffef
fff8
0001
000f
001a
0015
0011
000f
0002
0008
fffd
ffe8
ffed
fffd
0011
0013
0007
0004
0007
fff3
ffef
ffe1
ffe0
ffed
0000
fff6
ffef
fff6
ffeb
ffff
0011
0017
0017
0000
fff4
fff3
0000
fff4
fff4
fff6
fff6
0001
0009
0004
fff7
0001
0009
ffe9
fff8
ffe6
fff2
0003
fff4
ffe2
ffe8
ffee
fff7
000b
0014
000d
0012
000a
fff2
fff2
ffee
fff2
fff5
fffb
fffe
ffed
fffe
0010
0006
000d
fffd
0009
fff7
ffee
0006
0009
ffeb
fff2
ffee
fff4
fffc
000f
0019
0012
0009
fff4
0005
fffb
fffa
fff9
fff2
fffe
ffff
fff6
001e
ffff
fff4
fffc
0002
ffff
fff2
fff3
fff6
ffec
ffe5
ffe7
fff5
fff5
0008
000b
000c
000a
0003
0003
fffd
000b
0000
fffb
fff7
ffff
fffd
0008
000e
0007
000e
fff6
0004
0008
fff2
fffa
fffe
ffe3
ffe5
ffed
ffee
fffc
fffc
fff2
0001
fff6
fffe
fff4
000e
0002
fff4
0000
0003
000a
fffe
fffb
001e
0002
fffc
0007
0002
fff5
fffc
fff1
ffe8
0002
ffe7
ffdc
ffeb
fff7
fff4
fff3
fff0
fffc
fff7
0002
0010
0001
0005
000a
001c
0012
0015
0009
0014
0011
ffff
fff6
0009
fffc
0009
fffc
0008
000d
fff6
ffef
fff7
fff6
fff0
ffff
ffff
000d
0005
0006
0005
000e
001f
000d
0012
0028
000f
000c
ffff
fff7
ffff
fffb
fffa
0009
000a
fffc
000a
0013
0019
0019
001c
002e
0021
0012
000f
0011
000f
000d
0016
0007
0005
fff7
0000
0007
0005
001b
0010
ffff
0008
fffa
0005
fffa
fffd
000b
fff5
fffe
0009
ffff
0009
0009
001d
001c
0016
0013
0016
0012
0009
0013
0007
0009
fff5
fff9
ffe4
fff5
fffb
fffc
fff6
fff9
ffff
0005
fffa
fff8
0006
0003
ffff
fff8
000a
0009
ffff
0009
0001
fffe
000f
0000
fff7
fff9
0000
fff7
0005
fffe
0007
fffc
0001
fff8
0004
fffb
0008
fffe
0009
0006
0003
fff8
000b
0005
0006
0005
0004
0004
ffeb
0007
ffe8
fffb
0009
000d
fffe
fff0
ffe6
fff1
0004
0002
0000
fffe
fffe
fff7
fffa
fffb
ffff
0001
fff6
fff4
ffff
000f
0004
0008
001b
000d
0009
0008
0016
fff9
ffe8
ffea
fff8
ffe5
ffe4
ffe9
fff6
fffd
0007
fff6
fffe
fffa
000b
0008
000a
0002
0002
0012
0015
001c
001e
002e
001f
000d
0002
0007
000b
fffa
000e
0007
000f
0006
000b
0005
fff9
ffe1
fff3
0006
0004
fff8
fffb
fffc
0003
fff3
fff4
0005
0011
0021
001e
0022
0002
0008
0007
fffe
0004
fffa
0000
fffd
fff9
0012
000f
fffd
0001
ffdd
ffd5
ffea
ffeb
fffc
0003
0003
ffff
0002
0009
0000
000d
0007
0014
0017
000c
0001
0015
0014
001b
000d
0011
ffff
0006
000a
0000
0003
0010
fffd
ffe1
fffb
fff2
ffee
fff6
0002
0003
0002
0006
0017
0009
0004
000c
0006
001a
0010
0017
001a
0029
0031
0025
001d
0017
000b
fff9
fff3
fff4
ffe4
ffe9
ffdc
ffef
fff7
0007
001a
001e
000c
0015
fff9
000e
ffff
0007
000e
0006
0018
0016
0024
0030
002f
001e
001b
000d
0004
ffff
0000
fffb
ffea
ffd6
ffc9
ffdf
0003
000a
000d
0008
0000
0010
ffec
ffea
0000
0017
0010
0008
000c
0009
000b
0014
000f
0015
000a
0010
0005
0003
fff6
0009
fff2
ffc1
ffc9
ffe6
0001
000a
0012
0005
fffc
0004
ffef
fff9
0003
fffb
0007
ffff
fff9
fffe
ffdd
ffde
fff1
0008
000b
0016
0012
000b
0002
fffe
fffa
ffbb
ffe1
ffe7
fff3
0008
000c
001a
fff9
fff6
fff1
0006
fff6
fff0
fff2
ffd7
ffde
ffbe
ffb1
ffbc
ffe7
0006
000e
0010
0015
0016
0000
fff3
ffdb
ffdb
fff1
fff0
fff8
0014
0004
fff5
ffe7
ffe7
ffe7
ffef
ffe9
ffdd
ffcd
ffcf
ffc9
ffc2
ffb4
ffce
fff5
0012
0013
0018
001c
0029
0012
fff3
fff8
ffdb
fff6
ffe5
fff1
000a
fff6
ffed
ffed
ffd9
ffce
ffe7
ffce
ffe0
ffd5
ffe4
ffd3
ffdd
ffd5
0007
fffe
000b
ffff
000e
001c
0014
fff6
ffeb
ffe2
ffd5
fff1
ffea
fff8
ffeb
fff5
fffd
fff9
ffda
ffd4
ffdb
ffe0
fff0
fff4
ffed
fff9
0001
0004
000c
0005
fffb
000b
0002
000e
0002
fff8
ffe0
ffe2
ffe8
ffec
fff6
fffb
ffef
fffe
0014
fffc
ffe7
ffdb
000f
000e
0003
0006
0003
fff6
ffff
0006
000b
0001
0006
000b
0015
0007
fffa
fffd
ffe6
ffde
fff2
fff8
0013
000e
0005
0004
0003
0005
fff8
fffc
0011
0005
fff8
ffff
0003
000a
fff9
0006
fff7
000c
0005
000b
0004
ffec
fff5
fff4
ffea
ffe4
fffb
001a
000f
fffc
fffb
0001
0016
000e
fff3
000f
0008
fff5
fff4
fff2
fffa
000a
0000
fffd
ffff
0003
fffb
fffa
fff8
fff1
ffdf
ffef
0001
fff4
fff9
fffb
0006
000e
fffe
fffe
0006
0004
fff2
ffff
fff7
fff5
0000
fff6
0001
fffc
000a
000d
0007
0001
000a
ffff
fff9
ffe3
ffe2
fff3
fffb
ffeb
fffa
0015
000d
001b
0012
fffd
0001
000e
fffe
0005
fffa
0001
0001
0000
0005
fffd
fffd
0013
000f
0006
fffd
0005
fffb
fff7
ffe8
ffe5
fffc
fffb
000a
0021
000e
000d
0004
0014
0001
0002
000b
fff4
fff2
0001
0003
0000
0000
0004
000d
0015
0003
000b
ffff
fff1
ffe9
fffa
ffeb
ffe9
ffed
0000
fffd
0021
0010
0013
0009
000f
0005
0027
0005
fff6
fffd
0003
0010
0012
0011
0010
0004
0006
0000
fffb
0008
fff5
fffc
fffd
0007
0002
fff7
ffe6
fffa
fff4
0015
0003
0003
001a
0014
001d
fffe
0005
fff8
0006
0000
fffe
0010
000e
0009
000a
fffd
0003
0013
0006
000a
0004
fffe
ffff
fff7
fff7
fffb
fff9
0008
000a
0000
fffa
0017
000f
0000
0005
fff8
0003
000c
0001
0009
0004
fffa
fff5
0002
000d
000e
0003
0003
0014
0009
000a
ffff
fff5
0008
fffc
fff3
ffff
0003
0003
ffeb
fff8
0001
0005
0008
0006
fffe
0002
fffa
0001
0000
fff8
fffa
fff3
fffb
0006
0008
0005
000f
000b
0006
fff2
0008
0003
ffe8
0003
0007
fff6
0001
fff0
0019
0021
000f
000a
fffb
0005
fff0
fff6
fff6
0005
fffa
0003
fff4
000f
fff6
fff5
0005
001c
0010
000b
001c
0021
000d
0008
0009
fff9
fff4
fffa
001d
0018
0005
000f
000e
0015
0008
0014
0009
0002
fff8
0002
fff4
0002
fffc
ffeb
0006
0008
fff9
000d
0006
0010
0000
fffe
0001
0001
fff5
fff0
ffff
fffc
0004
000d
000f
0018
0011
fffb
fff3
0004
0010
0010
001f
001a
0018
0007
000a
0004
fffc
fffe
0000
0001
fff7
fff7
fff6
fffb
ffff
fff8
0015
0003
0009
0012
0011
000e
0016
0010
fffd
0013
0004
000c
0012
0000
000a
0007
0001
fffd
fffd
fffc
fffc
fffb
ffff
0000
fff8
0008
0002
000b
0007
0001
fffe
0002
0002
fff7
fffa
000b
fff6
0004
0006
0002
fff9
fff5
0001
0002
0008
0000
0002
0001
fff7
0005
fff8
ffff
0000
ffff
0006
fffc
fff8
fff6
fff9
fff1
fff1
fff0
0004
fffe
ffe9
ffee
fffc
fff6
fff9
0005
fffb
fff6
fffa
0008
fffb
000a
0004
fffe
000a
fff6
fff6
fffc
fff7
fffc
0005
fffb
fff8
fff2
fffe
ffff
000b
0002
fffa
fffc
fff4
ffec
ffed
fffd
0008
0001
0006
fff7
0003
0015
fff4
0001
fffa
0007
0003
0009
0008
fffb
000b
0008
001b
0017
0017
0025
0032
0023
0031
000f
0027
0027
000a
0007
ffeb
fffb
0015
000d
0003
000b
001e
ffee
0008
fff8
0001
fffe
0000
000a
0018
001a
0025
0016
0019
0028
001d
0020
001b
0013
0019
0014
0010
0007
0010
0009
fff3
0007
0004
fffa
001e
0016
0017
0003
fff8
000a
0015
001f
002c
0025
0017
0013
001d
000d
001d
0020
0014
0016
0016
0005
0010
0000
000f
0003
fffd
fff6
0004
000f
ffff
001d
0003
0007
0002
0007
fffc
001e
0028
0015
0011
0010
000a
000c
0015
0013
0013
0012
000e
0000
fffd
0003
0008
fff3
000a
fff3
fff5
fffe
001b
0023
0020
0029
fff5
0023
0008
001c
000b
0010
0013
fff1
0008
ffff
0004
0002
0009
0002
0003
fffd
0005
0005
fffb
0002
0012
fff7
0000
fff3
0001
0036
001c
0018
fffb
000e
fffc
000c
fff0
0002
fff3
ffee
fff4
fff5
fff1
fffa
fff1
fffe
000b
fffe
ffff
0005
0002
fffc
0004
fffd
0015
0004
000c
0024
0020
001a
fff9
0002
0006
000f
0007
ffe9
ffe9
fff8
ffe5
ffeb
fff7
fff1
fffa
0001
fffb
0007
0003
fffe
000b
fff9
fffe
ffff
0011
0009
0010
0016
000e
0008
000a
0009
001c
0016
fff4
fffd
ffe4
ffec
fff6
ffec
ffe8
fffb
fffd
0010
0005
fff4
fff9
ffee
fff0
fff8
ffed
fff4
fff9
fff3
ffea
0007
0026
0005
fff3
000d
0019
000b
000d
fff6
ffe9
ffed
fff6
0001
0008
000f
0017
fffe
0000
ffed
fff3
ffff
0007
ffee
fff7
ffdb
ffe2
ffea
ffe9
fffb
000e
0009
fffd
0015
0012
0016
0022
0015
0009
0005
0012
000e
0026
001e
0011
000c
fff2
fff3
fffe
fff6
0007
fffb
fff9
fff2
ffe8
ffdc
ffc9
ffd8
0005
0009
fff7
000e
0011
001b
0017
0020
0012
0014
001e
001f
0015
0004
0004
0004
fffa
ffe2
fff0
ffff
fff4
fff6
0011
fff6
ffec
ffec
ffe0
fff1
0003
000f
0017
0002
0018
0025
0016
0017
000f
0009
0005
0003
fffe
ffe8
fff8
ffea
fff7
fffa
fff1
fff9
000c
fffa
000c
fff8
fffa
0001
ffed
fff1
000b
000c
0006
0016
0014
0018
0022
fffc
fffd
ffe6
ffe4
ffee
fff2
fff8
ffed
ffe8
fff6
fff1
ffeb
fff9
0000
0004
000b
fff7
fff5
000e
000b
fff5
0017
0006
fff9
0010
0025
000f
fff3
ffe9
ffcf
ffb3
ffc1
ffc7
ffea
ffde
ffe9
ffe9
fff0
fffa
fff4
fffe
000d
0001
fff8
0004
0003
0012
0014
0001
0022
fffe
fffe
000c
0026
0003
ffe9
ffcd
ffc8
ffb5
ffab
ffae
ffbb
ffbf
ffbc
ffc5
ffd9
fff2
fffe
0004
0008
0008
fffc
000c
fffe
fffc
0011
001c
0024
0012
fffc
0015
0031
001a
fff4
ffe7
ffd9
ffcd
ffd9
ffcb
ffd5
ffc0
ffc4
ffc5
ffe6
000f
0015
000c
000f
0004
000a
001d
000b
0002
0027
0032
001a
0016
0003
001b
002b
0010
0008
fffb
ffdf
fff4
fffb
ffed
fffa
fff2
fff3
ffff
0021
0015
0018
000f
0012
0000
000d
000f
0002
fff9
0005
0017
0019
000f
fff6
0012
001c
001e
fffe
fffa
fff6
fffa
000a
0003
000b
0014
0013
0021
0016
0013
0016
0003
0008
0006
0002
0008
000a
0001
fffc
fff8
0020
0007
0008
0013
0015
0014
fffb
fff0
000c
0017
0014
0011
0020
001c
002a
001e
001e
000a
0001
fffc
0004
0008
000a
0007
000c
001d
0002
fff8
001d
0005
fffd
000c
000c
0003
001e
0004
0005
001e
0015
0020
0025
0023
001c
0012
0006
0009
0006
0010
0003
000c
fff9
ffef
0005
000f
0000
ffed
ffec
0000
0006
fffe
0019
0013
002c
0026
0013
0016
0019
002a
0025
002d
000f
000a
0006
0006
0000
000d
0009
fffb
ffef
fff7
ffe2
0001
0018
fff5
0001
fff9
fffc
fffb
000a
000f
0031
0012
0027
0025
0023
002b
0019
0006
0011
000d
0014
000d
0007
0019
0007
ffeb
fffa
fffa
000a
0004
fffb
fffb
0006
ffff
fffe
fffa
0011
0009
001f
000f
000f
001b
0029
0022
0009
0005
001a
0013
000f
0003
0009
000b
0006
001d
fff4
ffea
fff7
fffd
000e
fff4
fff6
0007
fffc
0005
0000
0000
ffff
fff9
0000
0009
0018
001c
0004
000f
000f
0012
0004
001a
0022
000b
0010
0024
0008
fff8
000c
fffa
fffc
000c
ffff
0005
fff8
000a
0009
0005
0001
0005
001a
002e
0011
0011
fffa
fff9
0007
0011
fff8
fff8
fffa
001d
0003
0013
0012
0003
0009
0001
fff5
0007
fffa
fff9
fffb
0007
fffe
0001
fffe
0002
000b
0005
000a
fff8
fffd
0008
ffee
ffff
0008
000b
fff9
fff6
fff9
fffd
0007
fffe
0004
0000
fff6
fffb
fffe
fff9
0002
0006
0009
fff6
0003
fff4
000a
fffd
fffe
fff4
ffef
fff8
fffb
ffff
000d
0014
001b
000b
ffec
fff6
ffe6
fff1
fff2
ffe9
fffa
0000
fffd
0005
fffa
0006
fffc
000c
fff7
fff3
fffc
0008
fffb
ffed
fff4
ffdf
ffe2
ffe0
ffe4
ffe9
ffe6
ffe8
fff5
ffe3
ffd9
ffd9
ffd0
ffde
fffd
0006
fffd
0007
ffff
fff5
fff6
0006
000b
fff5
fff5
fff4
ffef
fffe
fff7
ffe8
fff6
0001
ffea
ffe9
fff1
fff0
fff7
fff4
fff6
ffff
0016
0023
000e
001a
fff7
000a
0009
0005
000b
ffe8
ffef
fffc
fffa
fff5
fff7
0001
0007
001a
001e
ffff
000a
0015
0004
0009
0006
fffc
0000
ffee
fff1
0001
001c
001b
001d
fff5
0002
fffd
fff0
ffe2
ffe1
ffe0
ffe3
ffe0
ffec
0003
000f
0030
0020
0019
0011
0001
0011
0013
0007
0015
0009
0001
0004
ffe5
ffe9
0013
fffb
fff8
0008
fff1
fff5
ffe1
ffcb
ffcd
ffe2
ffe4
fff7
0006
000d
0019
000c
000b
0018
0017
0019
001e
0018
0010
0013
0006
fff4
ffed
ffe9
001b
ffff
fff8
0002
ffe3
ffe3
ffdf
ffce
ffd7
ffea
fff9
0003
000c
000e
000c
000d
001a
0009
0022
001a
000b
0015
0007
fffd
fffd
fff1
ffeb
ffe5
0000
ffe6
fff4
fffc
ffe0
ffd6
ffe5
ffed
fff4
0009
0001
0008
0006
000d
0007
000f
0006
0013
000c
0015
0014
0018
000e
0008
0000
0000
0004
0009
0006
000e
0018
fff7
ffe1
ffe1
0008
fff0
0005
0016
0011
0013
001b
001e
fff9
fff9
0004
0005
0006
0009
000f
0012
0004
0003
0001
fffd
0002
000a
0022
0011
fffc
fffa
ffd9
ffef
0000
0011
001a
0020
001b
0009
0013
000e
0009
0001
fff6
0002
fff7
000b
0008
0007
0010
000e
fffb
ffff
0018
0001
0006
0014
ffef
fff5
ffed
ffdc
0001
001a
001f
0019
001c
000c
fffa
0000
0006
fffd
0000
0015
0007
0010
0009
0019
0013
0019
000a
000f
0024
002e
0018
0028
0004
fffb
ffe4
ffe5
fffa
002e
001f
000b
0009
0002
fff9
fffb
ffe9
fff8
0003
001c
0010
000d
0015
000f
001e
0023
001e
001a
0027
0006
0005
0018
fff9
fffd
fff1
ffdd
000a
0021
000b
fffe
0003
fff2
fff2
ffe9
ffed
ffff
0012
0021
0007
0007
0004
0007
000e
000f
000d
0017
ffff
ffeb
fff7
fffd
0011
ffed
ffe2
ffe1
0003
fffa
ffdc
ffea
fffd
ffee
ffe4
fff1
0002
000a
0022
0015
000d
fffe
0003
0003
0002
0001
0008
ffee
ffea
fff0
fffa
0013
0000
fffa
ffed
ffd0
ffea
fffc
fff0
ffe8
fff2
ffef
fff5
fff7
0002
0011
0013
0005
0002
000f
0002
fffd
fff1
fffc
ffea
fff0
fff4
0004
0001
fff3
0012
fff3
fff1
ffec
fffe
fffb
ffec
ffee
ffec
fffd
fffb
000c
0014
0015
0004
0001
fff3
0004
fff9
fff7
ffe2
ffe8
ffe3
fff6
ffee
ffed
ffed
fff9
000b
fff9
ffe6
ffda
0001
fff3
ffea
0003
fffd
fffc
000f
0014
0015
0004
ffff
ffe4
ffff
fffb
fffa
ffe8
fff0
ffed
ffef
fff7
fffb
fffd
fff2
0000
0020
0010
fff4
ffd7
ffeb
fff7
0006
0004
000a
0004
000a
001b
000f
fff1
ffef
fff3
ffed
ffeb
ffff
ffea
ffef
fffb
ffef
000a
0009
000e
0012
fffc
0000
fffd
fffd
0004
ffdc
ffec
ffef
0009
0003
000f
fff7
000f
ffee
fff7
fffa
fff4
ffed
fff3
ffff
ffff
0005
000b
fffd
0003
0012
001e
0007
0017
0003
0002
000a
0001
ffdc
ffee
0017
0027
0009
0007
fffe
0003
ffff
ffee
fff4
fff3
ffff
fffb
fff8
fffe
0012
000e
0001
000c
0020
0019
0014
fff0
0002
0004
fff9
0000
0002
0014
0022
003a
0020
0001
0000
0001
fff2
ffec
fffa
fffc
0003
fff8
ffff
fff8
fff9
0001
0008
ffff
000c
000a
0011
ffec
fffb
fff8
0008
0009
000b
0008
0022
003d
0029
001f
001a
0008
000d
0002
0002
fffd
fffd
fffd
ffff
fff9
fff4
fff8
fffd
0011
0025
0019
0006
ffd3
fff8
0000
000a
000a
ffff
fffd
fff8
fff3
0010
001d
0011
000c
0000
000c
000c
fffe
fff6
0007
fffe
fff9
fffb
fffa
000c
0034
003d
0025
fffa
ffda
fffd
fffe
0006
fff6
ffd8
ffef
fff1
ffdf
fffb
0015
0009
0014
0014
0015
000f
0001
0009
fffd
0007
000e
0015
001c
000f
0021
0025
0018
fff3
fffa
fffa
0001
fffc
001a
ffe9
ffdd
fffd
000b
0008
000d
000a
0009
0003
000b
0007
0018
001c
001e
001a
0012
002c
002a
0015
0006
0002
0005
fff9
fff9
0007
fff7
fff6
fff7
000a
0024
001e
001d
0020
000e
0015
0022
002a
0024
0023
0036
0021
0026
0022
0022
0012
0022
0016
000f
0011
0015
fff5
0003
000b
fff8
fff8
0005
fff9
fffa
ffe5
000e
fff9
0008
0010
0006
001c
0018
0012
001e
001a
001a
000f
0020
000c
0000
fff1
fff6
fff2
0005
fffb
ffff
fffa
fff7
0001
fff5
0003
ffff
fffc
fffa
0004
000a
0004
0007
0008
fff6
fffb
fffa
fff5
fff6
0007
fff6
fffa
0001
0001
fffb
0005
fffc
fff6
0005
0004
ffff
fff7
0002
fffc
fffd
fffb
fffe
0000
0008
0012
0013
000e
0019
000e
0002
0007
000d
001a
000e
ffff
fff9
0004
fff8
0001
0006
0007
0006
0004
fff5
fffc
0006
0004
0008
0000
fff9
fffb
0006
0007
0015
0022
000f
ffff
0006
fffe
ffec
ffef
ffef
fff2
fff9
0014
001a
fff6
0008
0009
000b
0009
fff6
fffb
0006
0005
000d
fffb
ffff
fffe
ffea
0003
fffc
0014
fff3
fff9
0002
ffff
0005
0004
fffa
fffc
ffef
fff0
fffb
0003
fff6
fffa
fff7
0002
ffff
0000
000d
ffe9
000f
000e
0016
001e
0019
000c
000d
fffc
000c
000b
0006
0004
000a
0013
0001
0009
000c
0001
fffc
fff4
fff0
ffde
ffeb
0009
fff5
fffa
fff3
ffed
000e
fff7
0003
ffff
fff7
ffed
fff7
fffb
fffd
fffd
0015
0009
0007
000f
000b
000d
0003
0005
fff2
ffff
0008
fff1
0003
0002
fffa
fffa
fffc
0000
0012
ffee
fff7
ffe1
ffd9
ffea
ffed
fff6
fff7
0001
0004
0008
0010
0005
0007
fff5
000b
0000
fff4
fff4
ffec
fff9
fffc
0004
fffa
ffe7
0006
fffa
0009
ffe8
fffb
ffe8
ffe4
ffe5
fff4
fffd
fff9
000a
ffff
000b
000a
0004
0008
fffb
0001
000f
0014
fffc
fffa
fff6
fffb
0002
fffc
fff8
fff3
ffe3
fff6
ffe2
fff1
ffe9
ffed
ffed
ffff
0002
000a
0007
0002
fffe
000b
0003
ffff
000d
0009
0009
0000
ffea
fffc
ffe4
fff8
ffe9
fff3
0004
fff0
ffd3
ffea
fff1
fff8
fff8
ffed
0005
0007
fffd
0005
0011
0005
fffd
0008
0005
0008
000a
0014
0000
fff2
fffe
fff6
ffdf
ffe8
ffe9
0005
0000
fff7
fffe
ffee
000f
0008
fffc
fff3
fffa
fffa
fffb
0000
fffb
ffed
fff1
fff7
0009
0001
0004
ffff
0007
fffb
0004
fffb
ffd6
ffe3
ffef
fffb
fff0
fff9
fff8
fff0
000c
0001
0009
000b
000b
fffc
0001
ffed
fffb
ffea
ffd5
ffe8
fff6
ffef
fffd
000b
000a
0010
000c
0006
ffdb
ffd2
fffb
fffd
fff8
fff9
fff2
fff5
0005
001f
0004
000c
000f
ffef
fff1
fff0
fff1
ffd1
ffd0
ffd9
fff1
ffdf
fffb
0006
001f
0019
001c
000a
ffe7
ffcb
ffea
ffff
fffe
fff8
ffee
0005
0009
0018
0016
0010
0010
fffd
ffed
ffdd
ffda
ffdc
ffd4
ffdb
fff1
fffe
0008
0008
0015
002f
0025
0003
ffe9
ffdf
fffd
ffff
ffed
ffe4
fff9
0008
0012
0010
000f
0018
000d
fffb
0002
fffe
ffee
ffe2
ffe3
fff9
fff4
fffc
0009
001f
001b
001d
000b
0009
0004
fff7
0002
fff7
fffc
fff5
0004
ffff
000a
000a
000e
0024
001b
001c
001a
0013
0002
fff5
fffd
fff6
0003
0001
0008
0010
001c
0022
000e
0007
0008
fffc
fff5
fffd
ffe8
fff8
fff6
fff2
0014
000a
001a
0028
001b
0030
0025
0015
ffff
fffa
0001
0009
0010
000e
000f
0021
000f
000c
000d
fff0
000c
ffff
fff9
0006
ffe4
0010
fffa
fff6
fffb
000b
0017
001c
001c
002f
0025
0012
fff3
fffe
000b
0013
000b
000c
0017
001a
001b
0017
fffa
ffe6
0004
0005
000d
0006
0002
0000
0007
fffa
ffff
000f
001f
0018
0024
0023
0013
ffff
fff2
fff9
0009
001a
0016
000d
0016
0006
000b
0004
fff8
ffe4
0008
ffed
fff8
0002
0005
fffd
0011
ffff
0004
000b
000b
000f
000f
0016
ffff
fff9
fff5
fffb
0008
000e
000b
0015
000f
0007
0019
0014
ffff
ffef
fff2
0009
000b
0005
0006
000d
0015
0003
0004
000b
001a
0004
ffff
0004
0000
fff5
fff8
000d
000d
0008
0017
0014
0009
fffa
0006
000c
fffb
ffe9
fffa
0007
fff5
0004
ffff
0004
0013
0003
000a
fffd
000b
0004
fffe
fffc
fff8
0004
000f
0003
000b
0015
fffa
fffc
0003
ffec
0002
000a
fffc
ffed
ffee
0000
fffa
0001
0001
0015
0005
fff0
fff9
0002
0001
0009
0007
0009
0014
0007
0006
0001
0007
0003
fffd
ffef
fff2
fffb
fffa
0002
fff9
fff5
fff3
ffe7
000d
ffff
000a
0000
ffe3
ffd8
ffe8
fffa
0004
0008
000b
fff4
fffa
ffff
fff5
0007
fff4
fff6
ffee
fffd
fffc
fffb
0009
000b
0001
fffd
fff0
ffe3
000b
ffff
0005
fff1
ffde
ffd9
ffe5
ffe4
ffef
fffa
fff6
ffe6
ffe7
fff4
ffe5
ffec
fff0
ffe9
ffe8
fff3
ffe7
ffef
fff2
fff4
0008
fff2
0008
fffa
fffc
fff7
fff9
0018
fff2
ffe3
fffd
000f
fff3
fff6
fff5
ffee
fff9
ffef
ffed
fff1
fff3
fff6
ffd9
ffff
0005
000e
0002
fff1
fff5
ffe0
0000
fffc
0005
fff6
fff5
fff6
0010
0003
001d
0021
000e
0003
0006
fffb
fff6
0013
0012
000b
fffc
fff2
fffd
fffd
fff6
0012
fff7
fffc
0014
0016
fff4
000a
0008
0005
0000
fffa
0007
fffb
fffc
000b
000b
000a
0003
000f
0003
0013
ffe8
0004
000b
fffb
fff7
0007
0004
000c
0002
ffec
fff7
fff5
0008
fffa
fffd
fffa
0009
000a
0009
0005
fffd
fff7
0006
fff9
fff7
0008
fff9
0002
0003
0001
0006
ffff
0004
0003
0002
fffa
fff6
0005
0003
fff7
fff7
0003
ffff
fff7
000b
0005
fffa
0000
fffc
0000
0003
fffc
fffa
fffa
ffec
fffb
fff8
fffa
fff4
0001
0008
fffc
fffd
fff5
fff9
000a
0000
0008
ffff
0005
fffe
0009
0009
0007
0003
fff6
000d
0008
ffeb
0002
fffc
0000
fffb
0002
ffff
fffb
fffe
0010
0006
0010
0016
0016
fffc
fffa
0003
fffc
0004
0005
fffc
fffc
0000
fff5
fff2
0007
fff7
ffde
0008
0013
0013
000e
fff8
ffe3
ffef
ffe9
0002
fff6
0009
fff7
fffb
0004
fffc
fff1
fffb
000b
0000
0012
0000
fffd
0000
fffc
0008
ffff
000c
000b
000f
fff8
0009
fff7
ffe7
ffe9
ffec
0012
000a
0002
0014
0017
0004
000a
000c
000f
0006
0008
0003
0011
0000
ffff
0004
fffa
0008
fff9
0013
0005
000c
0006
0003
ffee
ffe7
fff1
fffc
0007
0010
001c
0010
0009
000c
000f
000e
0012
000d
0005
fff9
0007
fff9
fff9
0009
fffb
000f
0007
001c
0007
000f
0014
fff9
fffe
fff0
fff1
0001
000c
0014
0004
000f
0019
0014
0019
000c
0008
fffe
0012
fffe
0011
fff9
0004
0003
fff3
0014
000a
0016
fffb
000c
0004
fff6
fffa
fffe
ffff
fff6
000f
0002
0008
fffc
fff5
ffff
000b
0000
ffe8
fff5
fff2
0006
000f
0008
fffd
0006
ffdb
0007
fff1
0002
fffb
fff9
fffa
fff2
fff1
fff8
ffec
ffef
fff8
fffa
fff1
ffec
ffda
ffdc
ffdd
ffe7
ffd7
ffd7
ffe9
fffa
0001
0009
0004
ffee
ffe8
fffe
ffdf
fffa
0008
fff9
fffa
ffff
fffe
0008
000e
0018
0019
001a
0004
0003
fff6
ffd7
ffc3
ffd6
ffd5
ffde
fffd
fffa
000a
fffc
0007
fff2
fffb
0008
fff8
ffff
0006
fff0
fff9
fffb
ffff
0009
000f
0013
001e
0026
0024
0013
0016
000c
fffe
ffec
ffdf
fff5
0011
000d
0018
fff9
fffa
0001
fff3
0005
0003
fffc
fffc
fff7
ffec
fff1
fff4
0010
0015
0015
001c
0015
001d
0031
002d
002a
001a
0004
fff9
0007
0011
0014
0017
0006
000a
ffea
ffe7
fff5
fff1
fffc
fff3
fff0
fffb
ffe6
fff4
000c
0003
0005
fffe
0002
0001
000a
0011
001f
000e
001c
0011
0000
fffd
ffff
000b
0003
fffe
fff0
ffea
000e
fffa
0003
ffea
ffd8
fff6
fff2
fff5
fff8
fffc
000d
0001
fff7
fff5
ffe7
fff2
0005
001f
0012
000e
ffff
ffea
fff6
000c
fff1
fffd
fff6
fffc
0000
0003
ffec
ffd8
ffe2
ffe9
ffea
ffe6
ffe8
fffd
fff2
fff1
ffe5
ffe0
ffdf
fff5
fff4
000e
000d
0011
fff4
ffef
fff8
ffeb
0000
fff9
0001
0005
0000
000a
0008
ffed
ffe6
ffec
ffe0
ffe0
ffd5
ffe7
fff3
ffea
fff1
fff0
fffc
fffa
0003
fffa
001b
fffd
0003
fff3
fff5
ffea
ffee
0000
fff8
0006
0011
0016
0014
ffff
ffe7
fffc
fff4
ffed
ffc7
ffd9
ffe9
fff7
fffd
fff2
fff4
0004
0009
000c
000a
0007
0003
ffec
ffe9
ffed
fff7
0000
0002
0002
fffb
0004
001b
0014
fffc
0009
fff6
fff5
ffe1
fff5
ffec
ffff
0007
0005
fff8
ffff
0007
0006
000a
0002
ffed
fff3
ffeb
fffc
fff5
ffff
0004
fffc
0029
0013
001e
001c
0017
0006
000c
000b
0005
0005
0016
0018
000d
fff9
fff1
fffc
fff6
0004
0005
fff8
ffea
fff4
fff3
fffa
000e
fff9
fffc
fffc
0023
0006
000c
0014
0021
0011
0016
0009
0016
0018
000f
0015
0005
fff6
fffb
fffc
ffff
0006
0008
ffff
fff7
fffe
fffc
fff7
0002
fffd
fff8
fffb
0016
0011
0011
0005
0010
0005
000a
000e
0004
0003
000d
0003
0005
0003
fff3
fff0
fff6
0004
0000
0004
0002
ffec
0007
fffc
0008
fffe
fff4
fffa
ffe3
fff1
fff1
ffee
0001
fffd
000a
0014
0019
0013
0016
0009
fffe
ffed
fff9
fff9
fffa
000a
0008
0000
fff2
ffec
fff4
fff5
0003
0007
fffe
fffa
ffe7
ffdd
ffdb
ffdb
ffe5
fff9
fffd
0005
0009
000f
0004
fffc
fff7
fff0
ffed
fff3
0004
0005
ffff
0001
ffe5
ffef
fff4
fff8
0001
0002
fffd
000d
ffe9
ffe7
ffdd
ffe3
ffea
ffe7
0000
fffb
fff9
fffe
0004
fff8
0000
0000
ffef
0005
000d
000d
fff9
fffc
fff8
0008
0007
ffff
fff7
0000
0007
0006
fffe
ffec
ffee
fff6
ffe6
fff1
fff7
ffee
ffe0
ffec
ffea
fff1
ffe8
ffee
ffee
fffe
ffeb
fff1
ffee
ffeb
0002
fff6
fffd
0001
0003
fffd
fffb
000b
0002
fff9
0002
fff5
fffc
fffb
fffc
ffed
ffe8
fff6
fff1
fffc
fff2
ffde
ffc9
ffe4
fffe
fffc
fff3
ffea
fff1
0006
0005
fffb
0004
fff5
fff8
fffb
fffd
fff9
ffff
fffe
0005
fff4
fffc
fffa
ffee
fff9
fffb
fffd
ffd3
ffdc
ffdf
ffdb
ffea
fff2
fff5
ffe4
ffe9
000a
fff7
fffa
fff5
fff7
0000
fffc
0000
0004
fff5
fff7
fffc
fffb
fff2
ffe9
fff0
ffde
fff1
ffe2
ffe3
ffed
fffc
fffb
ffeb
0004
fff5
fff9
fff6
0007
0005
0002
0009
0005
0002
0007
fffa
fff7
0003
fffc
fffd
0005
0000
0009
000b
fff9
fffb
fffa
0001
fffd
0002
0002
0008
ffff
0005
fffd
fffe
0000
fffc
0003
ffff
fffd
fff5
000b
fff7
0001
fff6
ffec
ffed
fffb
ffed
fff4
fff0
fff1
fff0
ffeb
ffe8
fff4
ffff
ffe9
ffec
ffe6
ffef
ffeb
ffe2
0002
0002
fffb
fffe
fff7
0005
0001
0008
fffd
fff6
ffe6
ffef
ffe7
ffd4
ffd9
ffd5
ffb9
ffd5
ffd7
ffcf
ffdf
ffdf
ffd1
ffde
ffce
ffda
ffe1
ffcf
ffe0
ffec
fff9
fffd
0006
0003
0006
fff1
0008
fff7
ffe8
ffe0
ffd9
ffd3
ffcb
ffd6
ffd6
ffd6
ffe1
ffe4
ffe1
ffd8
ffe2
ffef
fff8
000e
0009
fff4
ffef
0003
0014
000a
0007
0003
fffb
fff4
ffeb
ffe3
fff4
fff8
fff4
fffa
ffed
0000
fff2
ffee
fff5
ffe5
ffe9
ffe5
ffd9
ffdb
fff3
fff3
0008
000e
0023
0016
000c
fff5
fffb
0000
ffe7
ffe2
ffe5
ffeb
ffe8
fff8
fffe
fffb
fffc
0016
0000
0002
fff5
fff5
ffe5
ffeb
ffed
ffea
fff9
fffc
fff0
fffb
fffb
0015
fffa
fff8
0005
fff2
0010
ffdc
ffea
000a
ffed
0002
0003
fffc
000d
000e
0007
0009
fffd
fff5
fff8
fffd
fffb
fffd
fff8
0008
000c
fffc
0007
0008
0006
fff1
fffb
ffe0
0022
0001
ffd6
ffe8
fff4
0002
0004
0011
000b
0011
ffff
000d
fff2
000b
0012
001c
0018
0018
000f
0011
000c
0020
0024
001b
0004
fff5
0003
ffff
000d
0012
ffde
fff5
0001
0004
0004
000f
000f
0007
fff3
fff5
fffa
0010
001c
0010
0023
000f
0017
000b
0002
002e
005a
0049
000d
0007
000a
000f
fff3
fff9
fff5
0002
0006
0005
fffe
fffe
0007
0008
0000
fffc
fff7
0005
0001
0009
0010
0018
0006
000b
fff8
0020
005e
003a
0013
0010
000b
000e
000c
ffe9
0009
0015
0018
0016
0012
0027
001a
000e
fff9
ffec
fffc
fffa
0009
000c
0003
0008
fff7
0009
0004
0014
0046
0038
0020
000a
000e
000e
0006
fffb
000a
0018
001b
001e
0018
0015
0017
001d
0006
ffff
fffe
fff3
fff9
0008
fff9
fff6
fffe
0008
000b
0016
0037
001a
0020
0007
0016
000b
001c
000a
0010
0011
0026
0020
001f
000f
0017
0011
0009
000b
fffc
fff6
fff6
ffe5
fff7
0008
000b
0016
000d
0005
0005
fff4
001b
0010
0001
0016
0022
fffe
001f
0019
001d
0020
0005
000f
0012
0025
0013
fffb
fff0
0002
fff5
fff3
fffb
000d
000a
0012
0021
0005
ffec
fff1
0006
ffeb
0012
0003
001f
0001
0016
0022
000c
0028
0011
0009
0015
0018
0002
ffff
ffef
fffa
ffed
0000
fffe
fffb
fffd
fffd
001a
0000
0005
fff7
ffd4
fffe
0007
fffc
0003
fff2
0007
fff7
0000
0016
0008
0006
000c
0006
fffb
fff9
fff7
fff7
fff6
0009
000f
0001
0000
0004
0006
0004
ffea
ffe5
fff1
fff2
0012
fffc
fff5
ffe9
fff7
0005
0009
0005
fff9
ffff
ffec
ffeb
fff4
ffe3
ffeb
fffb
ffff
0004
000c
ffff
fff8
fff3
fff5
ffee
ffdd
ffd4
ffdb
0006
fffa
ffe5
fffe
ffdf
fff9
fffe
0013
fff5
fffe
000c
0004
fffc
fff0
fffd
0003
fffd
0001
0006
000d
fff7
fff3
fff0
fff5
fff6
0005
fff9
0001
0004
0003
fffd
000b
ffcf
fff4
0007
0007
fff9
fffd
ffff
fff1
fffe
000d
000a
0006
ffea
fff2
fff9
fff4
fffe
fff2
ffdf
ffe4
fff8
0004
ffe0
0012
fff2
fff5
000c
fff6
ffe8
ffea
fff7
fffe
0002
fffa
ffed
fff7
0001
0018
fffe
fff9
fff2
ffed
fff8
fff1
fff8
ffea
ffe8
ffea
ffe4
000c
ffe2
ffea
fff3
0001
0001
fff6
ffdb
ffef
fffe
fff9
ffe6
fff5
fffe
fff8
000c
0006
000e
fff8
ffea
fff2
fff1
ffed
ffef
ffe8
ffe8
fff9
ffef
fff8
fff3
ffeb
fffe
fff6
ffe8
fff5
ffea
fff5
0001
0002
0000
fffc
000a
fff8
000d
0002
fffa
fff9
fff7
fff3
fffa
fff6
fff9
0002
0001
ffff
0002
0016
0003
0008
fff9
fff9
fff3
ffef
ffe4
ffea
fffa
0001
0008
0006
000a
0009
ffff
001a
0002
0009
0003
fffb
fffb
0004
0002
fff2
0008
0015
0016
0013
000a
0013
fffe
000a
0001
fff1
ffe4
fffc
ffee
0006
fffb
0006
0003
fffd
0003
000c
0009
0016
0008
0005
ffff
ffff
fffb
0003
000e
0003
0020
0007
0014
fff8
fffa
0004
0007
fffc
ffea
fff7
0005
0003
ffff
0009
0002
000e
0003
ffff
000f
fffe
0006
0002
ffff
0000
0017
000f
0000
000b
0010
0007
ffef
ffe7
0001
0005
000a
fffb
0018
0014
ffeb
ffee
fff1
ffe3
fff6
0003
0005
fffd
ffff
0011
0017
000f
000c
0005
0008
000e
0020
0024
0035
002c
fffc
0002
fffd
0008
0008
0005
0002
0002
fff3
fff1
0008
fff4
fffa
fffc
0003
0013
000a
0009
fff4
fff3
ffed
0001
fffc
000e
0029
0037
0007
0004
0003
0009
0000
fff8
0009
fffb
fffd
0004
0017
0007
fff5
0005
0003
0022
0012
0010
002c
0006
fff9
001a
0027
0025
001f
0012
0017
0023
0011
fffc
fff7
0008
fffc
fffb
0003
fff8
ffff
fffa
fff6
fff8
fff7
0003
0002
fff9
fffc
ffff
fffc
000b
fff9
fffc
fff9
fffa
fff9
000b
000a
0001
0008
fff6
fff6
fffb
000a
0006
fff9
0005
fffa
fffb
fffd
0001
0008
0003
000d
fffe
fff6
fffd
000c
0004
ffee
ffed
fff2
0001
0017
0016
0006
ffff
ffff
0007
fffc
000a
0002
fffa
000a
000a
ffec
fffb
fffa
ffed
0003
fffd
000d
000b
fff4
fff4
fffb
000f
fffc
0003
0008
fffa
0006
0001
000c
0014
0002
ffec
fffb
000a
0007
fff9
0008
fff5
fff9
fff3
0000
fffe
0002
0017
000b
ffff
0001
0006
0006
ffef
000e
000c
ffe1
ffeb
ffd2
ffdc
fffe
000e
ffe7
ffe8
fffc
000c
0003
0001
fff6
fff6
ffe6
fff5
fffb
fff3
fffd
0009
fff3
ffd8
ffeb
ffed
ffef
ffe9
fff3
ffdb
ffe0
ffd4
ffc8
ffe2
ffe3
fffd
fff9
001c
001a
001c
0007
fffe
0005
0012
fff1
fff9
0013
fffd
0009
000d
fffd
fff0
fff8
fffe
fff7
fffc
ffe2
ffd7
ffe4
ffd4
ffef
ffee
ffee
ffee
ffe6
fff8
0007
0022
0007
0000
0012
0002
fff4
0001
000f
0005
fffb
fffa
000d
0006
0006
fffd
fffb
0005
000b
000b
001e
0012
0023
001c
0009
000a
0008
001a
001c
000b
fffb
fff8
000e
0000
fffa
ffdf
ffe6
fff9
ffff
0007
fff9
0004
0008
001b
0006
0014
0015
0022
002b
0033
002a
0026
0014
0011
0018
0015
fff3
fffb
fffe
000d
001a
fffc
fffd
fff5
fff9
0008
0009
0009
ffff
0012
000d
001e
0017
001d
0027
003a
0027
0024
0024
0018
001b
0023
000b
0012
0008
0014
0018
0003
0018
ffff
0015
0005
0004
0000
0003
0009
000b
000e
0015
0015
0013
0024
0020
0026
001d
0020
0025
0020
0017
0019
0013
001c
0026
0031
0026
0002
000f
000b
0006
fffa
fff2
0007
ffff
0003
0000
0003
ffff
fffa
0004
0001
fffe
0002
fff6
0007
0006
0018
0006
0004
000d
0016
0024
0026
000b
0021
0016
0009
fff7
ffef
ffe4
0001
0006
0008
fffe
fff1
fffc
ffe6
ffea
ffda
ffde
ffdf
ffdd
ffe2
fff7
fff6
fff7
fffc
fffc
fffd
0021
002a
0008
0013
0016
fff6
fff7
fff0
fff4
fff4
fffd
fffa
fff4
fff1
fff8
ffe2
ffce
ffe0
fff2
ffdf
ffdc
ffe5
ffd9
ffe1
fff1
ffea
ffe4
0001
0022
001e
ffec
ffe8
fff6
000d
ffff
ffe0
ffea
fff4
fff4
fffa
fff0
fffc
fffd
ffe5
fffa
0003
fffb
fffa
ffeb
ffeb
ffda
ffe7
ffe0
ffe3
ffd7
fff0
0009
0018
0001
000f
0016
0020
fff1
fffc
fff2
fff6
ffef
0000
ffef
0000
fff3
ffec
0001
0014
000c
fffe
fff4
fff5
fff9
ffe8
ffda
ffde
ffd2
ffda
0003
0001
fffe
0002
0004
fff9
ffee
0009
0010
0010
fff4
0000
fffe
fff3
fff1
ffed
ffff
000c
000c
fff5
0002
fffb
fff3
ffea
ffe0
ffd4
ffdc
ffe0
ffdd
ffe7
0000
0003
fffd
fffb
ffe6
0003
000e
0005
ffff
000a
fffb
000a
000c
0009
0005
fffa
0005
0004
000b
fffa
ffec
ffe3
ffdd
ffe5
ffcd
ffe7
ffd8
ffe1
fff2
0005
0013
ffe3
fff6
fff9
0008
0009
fffe
000b
000c
0004
0011
000a
0003
0005
0013
0012
0010
0006
ffea
fff9
ffde
ffe3
ffd9
ffe5
ffee
ffea
ffdc
0009
000d
fff3
ffd8
fff4
fff0
fff9
000f
0007
000a
000a
000b
0010
000b
0000
0011
0015
0012
0012
fff8
ffee
ffea
ffda
ffd0
ffe4
ffe9
ffeb
ffed
fff0
fff4
000e
ffcb
ffe3
ffe5
0000
0000
fffd
fff5
fffd
0004
0012
0008
0005
000f
fffc
000e
000f
0009
0001
ffed
ffda
ffd6
0003
ffeb
fff6
ffe5
fffa
fff5
fffc
ffdb
ffc5
fff5
fff5
fff6
fffb
fff1
fff7
fffc
fff8
0008
fffa
000c
fffd
fffd
0003
0017
fff9
ffe7
ffdd
fff0
0006
000a
ffec
ffff
fff4
fff1
fff7
ffe4
ffe7
ffe9
fff7
fffc
fff4
ffe3
ffe8
fff9
fffd
0001
fffd
fff3
fff1
fffe
fffb
0007
ffed
ffe8
ffed
fff0
0000
ffef
ffe7
0003
fffc
fff5
fff4
fffc
fff8
fff8
0008
0000
fff1
ffeb
ffff
fff2
0005
ffed
fffa
fff1
fffb
fff0
fff5
fff7
0001
fff5
ffe6
fffd
0000
ffe9
ffd7
0005
fff6
fffa
fff5
0009
0021
000b
0011
fffd
fff4
ffe7
fff3
fff6
fffb
fff3
0002
fffe
fff8
fff3
ffed
ffe4
fff0
fff9
0000
fff5
000e
fff2
fff1
0007
fff5
0007
fff9
0021
002e
001d
0009
0012
0010
0006
000f
0016
0005
000e
0004
000c
0006
ffff
fff6
fffa
0008
0006
fff9
ffec
ffed
ffdc
fff1
0002
fff5
fffb
fff6
0013
001d
0024
000a
0012
0019
0025
001c
002d
0026
0013
0009
0021
0012
0013
0012
0017
0010
0016
0017
0001
0018
fffa
fff1
fff6
000a
000a
fff5
fff1
ffed
fff1
fff1
0002
0009
0020
000e
001e
0018
002e
002b
0013
0022
0018
001e
0028
0021
0012
fff9
ffff
fffd
0007
0009
0006
ffff
fff6
fffc
0001
0011
0009
001a
0017
000c
000e
0020
0014
0010
0015
0010
0013
0018
0010
ffff
fff4
fff5
fffc
fffc
fffc
0005
fffb
0007
0009
fff8
0000
fffc
fff6
0002
0000
0008
fffd
0005
000b
fff7
0002
fffb
fffa
0005
000a
0005
fff6
fff5
0005
000a
fffa
0001
0009
fff6
fffc
fff7
ffff
fffa
fffd
fffc
fff8
0005
fff5
fff7
ffeb
ffe1
fff0
fff4
ffef
ffd6
ffec
fffc
ffe5
ffe8
ffe1
ffde
ffeb
ffd5
fff1
fff0
ffe6
000a
ffff
fff6
0004
0005
fff6
fff7
fff2
fff3
fffd
fff4
ffdd
ffe0
ffd3
ffca
ffba
ffb8
ffc9
ffbc
ffd7
ffdf
fff1
ffd4
ffc5
ffdb
ffd7
ffdb
ffd8
ffe7
fffb
fffd
fffb
0005
0001
ffee
ffef
fffd
0001
ffec
ffd4
ffc7
ffca
ffb9
ffc0
ffa8
ff9c
ffb5
ffcf
ffe4
ffec
ffea
ffe4
ffe1
fff8
0002
0002
ffef
fffb
ffec
fffb
fff6
0001
000e
fff4
ffff
0001
ffe7
ffe4
ffdd
ffd4
ffdc
ffed
fff6
fff4
fff0
fff2
ffef
fffe
0008
ffea
fff8
000a
0006
fff0
000b
fffd
0001
0008
0005
fff9
ffe9
ffef
ffef
0007
fffd
fff3
000f
0005
fffd
0008
0013
000a
000a
000b
0002
0008
0000
0002
ffe9
fffe
fff0
ffd7
ffec
0009
fffc
fff8
0008
fffb
ffff
0008
ffe8
0004
fffd
fff9
0000
fff8
0009
0011
0007
0003
0004
0009
000e
0021
001a
000e
fffb
000d
fffb
fff2
ffe3
0005
fffb
ffe8
fffd
ffec
0006
000d
fff4
fffd
fff6
ffee
fffd
fffe
0007
fffd
0008
0008
fff5
0003
000f
001e
0006
0013
000d
0000
0009
fffe
fff0
ffef
fffd
ffe7
000d
0007
0002
0006
0000
000b
fffb
fff9
0006
0007
0006
0002
0007
0001
0001
0005
0005
fffb
0016
0004
0006
0004
fffd
0001
0008
0004
0000
fffa
000d
0014
fff9
000e
fffa
0008
0000
fff8
0005
0004
0007
0012
0004
0009
0004
0009
000a
0012
001a
000c
000b
0002
fff5
ffee
fff1
fff1
fff7
0004
0005
0017
0004
fff9
0009
0002
fffe
0003
0014
001d
000c
0012
0011
0000
0000
0008
000e
0010
001e
001e
0011
000a
fff6
ffe7
ffe8
fff0
ffe8
0003
0009
000c
0014
fffb
fff5
ffff
fff8
0015
0016
0020
0022
0021
001d
fffc
fffb
0019
001b
001c
001e
0020
0019
0006
ffe8
ffd5
ffd3
ffe8
0008
0003
0011
000a
0026
001a
000c
fffd
0003
0019
0026
000d
0012
0004
0001
ffee
fff8
0015
0023
001a
0023
001e
0015
0009
fff1
fff4
ffdb
ffe9
fff4
000a
ffeb
000c
0017
0009
0013
0000
fff8
000f
000d
fffb
0001
0007
fff3
fff2
ffff
0013
0018
001c
0024
0019
001d
0000
fffc
ffec
ffd8
0004
fffa
fff4
fff4
fff6
000e
0004
0007
fff7
fffe
fffb
fffe
fffa
fff6
fffa
fffb
0000
0004
0008
001a
0025
0028
0024
fffe
fff7
fff5
ffea
ffe6
fffe
ffeb
fffa
fff0
ffe8
fff7
000d
fffe
ffeb
ffe2
ffe9
fff0
fff9
ffff
fffe
fff8
0002
fff1
0003
0016
0025
001b
000d
fffc
ffe4
fff8
fff4
ffd3
ffec
ffff
fff2
0012
ffff
ffe8
ffe8
fff3
ffe4
ffee
0003
0005
fff3
fffe
ffef
0008
fffe
0005
0017
001f
0016
fffb
fff3
0001
ffeb
fff1
fff1
ffe4
ffdf
0002
fff8
0008
ffe3
fffe
ffd8
ffeb
ffd7
ffec
0003
0010
000c
0004
ffff
0010
000c
0008
000e
000d
0014
0006
ffe4
fff4
fff4
fff1
fff9
ffe6
fffa
fff8
ffe1
0014
fff7
0006
ffd8
ffe5
ffda
ffea
0000
0004
fffd
0004
0009
fffb
0005
0000
0002
fff8
fff8
fffe
ffe9
fff0
ffd9
ffea
ffd9
ffd1
ffea
0008
fff8
0001
0001
0009
fff1
ffdd
ffec
ffe3
ffef
ffef
fff7
fff1
fff1
fff0
ffef
fff9
ffef
fffa
fff0
fff5
ffef
ffe4
ffe3
ffe0
ffd9
ffda
ffe3
ffed
ffed
fffa
ffff
fff2
ffe2
ffe3
fff0
ffde
ffe5
ffdf
ffe8
ffeb
ffe7
ffed
fff8
ffee
fffd
fffa
fff6
ffde
ffed
ffd4
ffde
ffd9
ffe2
fff7
fff2
fff2
fff3
ffee
fffd
ffdb
ffd9
ffe2
fff9
fff8
ffeb
ffff
ffff
ffed
ffed
ffec
fff2
fff0
fffb
fffd
fffa
ffe1
ffed
ffe2
fff3
ffdc
ffeb
ffeb
ffea
ffe3
0008
fffd
fffa
ffef
ffe5
fff1
ffed
0002
000e
0005
0003
fffd
0008
0003
0002
000c
fff3
fffe
ffee
fff6
ffe5
fff8
fff1
ffee
fffc
fffc
fff3
ffd9
0003
fffe
fff6
ffe6
ffe6
ffe9
fff3
fffd
0015
0008
0008
0009
fff5
0001
0006
fffd
ffff
0002
fff5
fff5
fffc
0004
000d
0003
fff8
ffef
fffd
ffdc
fffb
fffc
fff9
fff3
ffe6
fffb
0013
0012
0014
000f
fffe
0002
0009
0003
fff7
fff3
0005
0002
ffe6
fff9
000c
000f
0005
fff8
000a
fff6
fff1
fff8
0005
0001
0005
000c
0017
000b
0008
fff9
fffc
fff9
000b
0004
001a
0002
0005
0012
0006
0006
0004
000b
fff5
0009
0008
fffe
fff3
ffea
fff1
0000
fff6
fff6
fffd
fffc
0002
0016
0008
0018
0012
0024
002a
0014
fffc
0007
0011
0020
0005
fffa
0009
0012
0001
000f
0023
0019
0013
000a
0000
0002
000a
0004
0006
fffc
ffff
fff3
0003
000f
0014
0013
0017
0024
0027
002e
002e
0030
002c
0039
0023
0017
002a
002e
0020
0016
000c
0000
fff7
000a
fff8
0000
fffe
000b
0004
0006
fff6
0000
fffc
fff6
0009
fffd
ffff
0010
000e
0002
0002
fff8
0009
0006
0001
0001
0006
fff7
fffa
0006
0002
0009
0002
0003
fffb
fff7
0003
fff8
0007
0006
000e
0023
0019
0011
ffff
000b
fffa
fffc
fffd
fff4
fff8
0019
001a
0021
0020
0012
0015
0005
0000
fffb
0003
fffb
fff5
0002
fff4
fffd
0000
0016
0029
0029
0028
004a
003c
002f
0010
002a
0007
000a
0010
0010
000a
001c
0021
001f
0020
0010
0004
000a
0007
fff7
0008
fffd
000a
fffb
0017
0021
0022
002d
002d
0029
0026
0019
0022
0028
001e
0012
fffe
0009
001b
0017
0023
000b
000b
0005
0002
000f
0001
0003
0005
0002
fffd
000e
0018
0021
0021
0011
001d
0012
0005
0019
0008
0009
fffe
fff9
ffef
ffee
fffb
0000
0007
0003
0009
0003
0018
ffff
0004
0007
0004
0013
0005
0019
fff5
fff3
0001
fffb
0006
0011
fffe
0006
fff8
0001
0005
000e
fffe
0004
fffb
0004
fff9
000c
0022
0026
0008
000b
000f
fff6
0006
0011
000d
0037
001e
0008
fff9
fff5
fffd
fff8
ffed
fff2
fff4
fff6
0002
fffb
fff0
fff3
fff4
fff1
ffe5
ffe2
fffa
003a
0029
0017
000c
0009
0017
000e
000a
0022
001d
0005
ffff
fff4
fff1
fff4
fff1
ffe8
ffe9
fff9
ffee
fff1
fff9
ffe9
ffe8
fff1
fff0
fff2
fff0
000d
001d
002a
001d
fff7
001a
0010
0003
000e
000f
fff9
ffed
ffe2
fff7
fff8
ffee
ffee
ffea
fff5
fff7
ffef
fff7
ffeb
fff8
fffb
ffe8
ffee
ffee
fff5
001b
0008
0007
0001
0003
0004
fffc
fff5
0000
fff0
fff4
ffe1
ffdf
ffdf
ffde
ffea
ffe2
fff1
ffeb
ffeb
fff3
fffa
fff5
0002
ffff
fff8
fff0
fff2
001a
001c
0013
0002
000d
0001
0003
fff4
ffe6
ffeb
fff2
ffe4
ffe8
ffe8
ffe4
ffe3
ffe8
fff0
fffa
0000
fffe
ffe3
fff7
fffd
ffed
ffee
ffde
0008
0025
001e
0001
fffa
0010
0022
000d
ffe8
ffe6
ffdd
ffee
ffef
ffe4
fff2
fff2
fff9
0005
0007
0002
0010
fff6
ffe9
fff4
ffef
ffe4
ffe7
ffee
ffec
000e
fffb
ffeb
0008
000c
001d
0009
ffdb
ffee
ffed
fffb
0007
ffff
0006
0010
001d
001f
0013
fffe
0007
ffee
fff2
ffef
ffe1
ffe7
fff1
ffe0
fff2
0004
0007
fff3
fff4
0000
0018
0001
ffec
0006
0007
fffe
000a
0009
0018
001a
0032
0024
000f
0005
ffff
fff9
fff2
fff9
fff8
fff8
fff5
0008
000f
0002
0022
000f
0016
fffd
0005
001c
000e
0015
0009
0017
0010
0026
001c
001a
0020
000d
0009
000d
000d
000d
0014
0004
fff8
000c
0000
0013
0017
0019
0036
0016
0012
ffec
0019
0020
0020
0019
001a
0009
0010
0013
fffe
0004
000a
000c
0014
000a
000d
0014
0013
000d
0007
000e
000d
000a
0012
002f
0014
0026
fff6
fffb
0006
002c
0024
0019
0016
0023
000b
0017
0008
000b
0008
0016
0018
0011
0011
0016
001c
0022
000f
0015
001e
0021
0015
0032
002d
0006
fff8
fff6
001f
002f
002c
001a
001c
0014
000d
fffe
fffd
0005
ffff
fffb
0008
0004
0006
0016
0030
0017
0004
0014
0014
000f
000b
001e
000a
0005
fff1
0000
000c
003a
0023
001c
000b
0019
fffd
0005
fffe
fff0
0008
000f
000f
0004
001e
0023
0023
0013
0004
0011
000f
0014
001a
001c
0002
0016
fffd
fff8
0000
002d
001b
000c
0007
0014
fffc
0004
fff8
0010
0008
fffa
0009
000a
0019
0018
0015
fff6
fffe
000c
000d
0008
0000
0024
0010
0006
fffd
fffa
001d
0033
0007
fff4
fff5
0013
0016
0011
fffe
0007
0005
fffa
000b
0007
0008
0019
000e
0000
0000
0011
0000
0003
fff4
0001
0007
000e
fffc
001b
001d
0019
fffb
fff1
ffee
fff9
fffb
000b
0007
000a
ffff
0006
0009
000a
0009
0018
000a
0007
ffff
fffa
0007
0000
fff1
0008
0020
0001
0004
fffd
0028
001c
000e
ffef
ffdc
fffb
fff7
fffc
fff6
fffc
fff9
0003
fff4
fffe
0000
0004
fff1
0001
fff8
fff8
ffff
fff2
fffa
0002
ffec
0008
fffd
fffa
000a
0022
001e
fff6
ffe8
ffe2
0000
0008
0009
0003
fff2
fff1
ffee
fffb
ffec
ffd8
ffe6
fffd
fffc
fffb
fff6
fff6
fff2
fff4
ffee
fffd
fff5
0002
0003
0012
0007
ffff
0005
fff7
0007
0004
0004
000b
fffe
fff4
fff7
fff7
ffe9
ffe7
ffec
ffe6
ffed
fffa
0000
fff1
0010
0004
000e
0008
fffc
fffa
fffe
fffb
fff0
0002
fffc
0005
ffe5
ffe8
ffec
000a
fff4
ffe9
ffea
ffe3
ffec
ffd4
ffd3
ffe7
fff5
0002
0000
000a
0004
ffff
000f
fff7
0001
fffe
fff8
0002
0002
fffa
ffe0
ffd5
ffe3
ffd6
fff2
ffdf
ffcc
ffe3
ffc5
ffee
ffe8
ffe0
ffd9
ffe5
ffeb
fffa
fffc
ffdb
fff0
fff9
0003
0006
0006
0002
fff8
0005
0009
fff7
fffc
fffa
fff2
ffee
ffec
fff5
ffea
ffe2
ffed
ffe8
ffff
fffb
fff0
fff0
fff1
0001
0003
0009
ffff
0001
000a
0001
0004
fffd
0007
0003
fffa
0007
fff8
fffc
000a
fff6
fff8
fff6
fff4
fff7
ffff
0009
fffc
fffa
fff9
fffb
fff6
fffb
0008
fffe
fff7
0001
000a
000a
fff7
0009
0009
fffa
fffd
0002
0007
fff3
fffa
ffed
fff8
ffee
fffc
ffe8
fff5
ffe4
ffe0
ffe7
ffef
fff0
ffed
ffea
0003
fffe
fffe
fff7
000b
0002
0006
0000
0004
0000
0007
fff4
0000
fff9
ffe6
ffe5
ffdb
ffd9
ffeb
ffd9
ffbd
ffd2
ffce
ffdd
ffef
fffb
fffb
ffe0
ffeb
fff6
fff8
fffa
fffd
000a
fff6
0000
0008
fff1
fff8
fffa
fff0
fffb
ffe5
ffef
fff7
fff0
ffe9
ffce
ffb6
ffbc
ffc8
ffd1
ffe1
fff1
fffb
0004
ffff
ffe9
ffde
ffee
fff3
0000
0007
fff7
0009
0000
0003
fff8
fffe
fff6
000a
fff5
ffec
ffe1
ffde
ffeb
ffd7
ffe0
ffe7
fff1
ffe4
ffdb
ffcf
ffee
0004
fff7
ffde
ffeb
fff7
fff1
0004
fffd
fff5
fff4
0007
000d
0003
fffd
ffe6
ffe8
ffd8
ffea
fff0
ffeb
0000
0006
fff0
ffe6
ffde
ffdd
ffee
fff7
0002
000a
fffd
0001
ffed
fffa
fff8
fff3
fff8
fff3
0004
0008
fff1
ffdc
ffd7
ffd8
ffe1
fff0
fff8
0001
0005
fff8
0001
0002
0002
0000
fff9
000b
0006
0006
0011
ffff
fffc
0001
0008
ffeb
fff6
0003
000c
fff7
fff4
ffe2
ffe4
ffee
ffed
fff3
0000
0006
0008
0003
0010
000b
fffb
0008
0005
0015
000f
0016
0018
0004
0011
fffa
0000
fff2
fff1
fff5
fff6
0002
0004
fff2
fff5
fff2
fff5
0001
0003
000e
0017
000e
0003
0001
0006
fffc
fff9
000c
000c
0013
0013
0010
0000
fff9
0006
0000
ffe6
ffe2
ffff
fff6
ffee
ffe4
fff2
ffe9
fffe
000f
001b
002b
001e
001a
0008
ffff
0005
0001
0001
fff9
0001
0005
0003
0001
ffff
001c
0004
0005
ffe7
ffd8
fff1
fff2
ffd9
ffe2
ffe2
fffd
0003
0016
0024
0010
0011
001b
fffd
ffeb
fff8
ffea
ffee
fff3
0004
fff8
001a
0018
0002
000d
0000
fff1
fff9
ffe1
ffe2
ffd4
ffd8
fff5
0000
fffc
0018
0017
001e
0012
0015
0014
0006
fff8
ffef
ffec
ffdc
fff7
fffb
ffff
000f
0018
000f
fff2
fff8
fff0
0002
fffc
ffed
ffe1
ffeb
0003
0006
0016
001c
0019
000e
000f
000b
001c
0013
fffd
ffe0
ffd7
ffe7
fff1
fff1
fff7
0009
0014
fffd
ffed
0003
fffc
fff1
0003
fff4
ffe9
fff8
001a
0017
0011
0010
0009
000d
0016
001c
002b
0015
0003
ffe6
ffe2
fffa
fff4
ffe9
ffe1
ffdc
ffff
fff1
ffed
fff9
fffe
ffe8
000d
fff3
fffa
ffe2
0006
0013
001e
000c
0000
0000
001f
001e
002d
0026
000f
fff6
fff6
0004
fff6
ffe8
ffe3
ffd8
fff1
ffe0
0000
ffeb
000c
0006
0002
fffe
ffe1
ffe5
fffb
000b
0017
0011
000b
0006
0005
0020
0015
0020
0007
fffa
ffe2
ffec
0007
fff4
fff2
ffe3
ffe0
fff0
fffc
0006
fff5
fffd
ffef
fff4
fffc
ffe8
ffe9
fffb
000c
000c
0005
000c
0020
0017
0021
000b
0000
fff2
ffe1
ffe6
fff7
fff3
fff2
ffe1
ffd1
ffe8
fffe
fff6
0007
fffd
fff4
fffa
fff6
ffee
fff1
fff2
fff4
fffd
fff8
fff7
0016
001b
001c
000d
fff1
ffe8
ffd9
ffe6
ffed
ffea
ffef
ffde
ffdb
ffda
ffee
0014
0006
0003
ffe7
fff3
fff5
fff6
ffe6
ffce
ffe2
ffcd
ffe6
fff4
001d
000d
0004
fff0
ffdd
ffd9
ffcd
ffdd
fff3
fff3
ffe2
ffe9
ffe2
fffb
000a
000b
fffd
fff2
fff9
0000
0000
ffed
ffe8
ffc3
ffb7
ffbc
ffd5
ffe3
ffff
0008
ffef
fff3
ffeb
ffdf
ffce
ffce
ffe4
ffd8
ffe4
ffd6
0001
0008
0018
000a
0003
ffed
fff5
fffe
fff0
ffe5
ffd3
ffd1
ffd6
ffcc
ffdb
fff7
fffd
fffc
ffff
0013
fffb
fff4
ffea
ffd7
ffec
ffe9
ffda
ffd7
ffe9
0015
0002
000a
0003
fffe
ffea
ffe4
ffef
ffdd
ffdd
fffc
0001
ffff
fffc
000c
fff6
fffc
fff6
0001
fff4
fffa
ffef
fff7
fffa
fff0
fffa
fff4
0004
0001
0004
000a
0000
fff2
fff1
fff0
ffd6
fff5
ffed
0000
001a
0014
000f
000b
fffe
fffa
fffa
0001
0012
0001
fff4
000b
fff2
ffe9
000a
0002
0001
000c
0004
0006
fffb
ffef
fffe
ffdf
fff4
ffe6
fff7
0007
0004
0010
0011
0008
fffd
fffb
fffb
fffe
0003
fffe
fffd
fff0
ffee
ffee
0003
fff4
fff9
000b
0001
0003
fff9
fffc
ffed
fff8
000a
fffd
0000
000b
0005
fff9
fff5
ffed
fff1
ffef
fff1
ffee
0003
fffe
ffef
0005
fffc
fffb
0012
0002
ffff
0006
0000
fff8
0007
0008
0000
0002
0003
ffe4
fffb
ffff
fff9
ffed
ffef
ffeb
fffd
0006
fff2
fff3
fffd
fff9
fff3
0003
0014
0015
001f
0011
fff5
fffe
fffe
fffb
fff7
fffc
0014
0027
0021
0014
0005
ffff
fffd
0005
fffd
fffd
fff6
0015
001b
000d
000f
fff7
fff8
0008
fff7
fffc
0014
0007
ffee
0009
fff8
fff7
fffa
0009
fffd
ffea
ffe8
fffb
ffff
fff7
000f
fffb
000d
001c
0003
0012
0011
0009
0014
0008
0000
0008
fffe
ffed
fffb
fff6
0003
0008
fff8
fffc
0004
fffc
0006
0006
fff5
fffd
000b
fff9
fff5
fff8
0002
ffee
fff8
0008
fff9
0005
fff7
fffb
0007
0000
0008
fffc
fffd
ffff
fff6
fff6
fffd
fff8
ffff
0001
0009
0001
ffff
fff0
ffe0
fff3
fff0
fff2
ffed
fffe
ffee
ffec
fff0
fff2
fffc
fffc
ffef
ffec
fff3
ffe9
ffea
fffc
fffb
fff8
fff9
fffb
fffc
0006
0000
fff6
fff3
ffe5
ffdf
ffdb
ffc7
ffcb
ffc9
ffc5
ffbc
ffba
ffd4
ffd6
fff7
0003
0000
fff5
fff8
fff7
ffe5
0004
0007
0007
fff8
0001
ffff
0001
fff7
fff3
fff0
ffe0
ffe5
ffe5
ffc8
ffbd
ffb7
ffd1
ffba
ffcb
ffdc
ffe1
fff9
0001
000d
fffa
0000
0007
ffeb
fffb
ffff
fff7
fff5
fff9
0009
fff9
000e
0012
0001
fffd
fff1
ffdb
ffcd
ffd5
ffe2
ffe4
ffd5
ffe4
ffdf
fff0
fffe
0000
000e
0000
0012
0008
fffb
fffe
000d
0006
fff3
0009
fff8
0015
001c
ffff
0013
fffb
0005
fff2
fff9
fff6
0005
ffff
fff4
fff1
ffed
fff5
0004
ffec
ffe9
fff6
ffe9
fffc
0007
0000
0001
fff4
fffb
0009
0004
0001
0011
0010
0009
000a
0009
0004
0006
0006
0008
000a
000f
fffb
fff3
0000
ffff
fff4
fffe
ffe9
fff1
ffef
0008
ffff
ffff
0001
fffc
0008
0011
000c
0013
0006
fff3
0001
fffd
000f
0013
0009
0004
0009
000c
0008
0005
fffe
000e
0001
fff9
0005
fffd
fff7
fffe
fffb
0006
001c
fffe
0000
fffc
0007
0007
fffd
0008
0012
000a
001a
0001
0000
000b
fffe
fff3
fff5
0008
fffd
0001
0007
fff4
fff9
0009
000c
000e
000d
0034
0016
fff3
0005
fffb
0003
fffd
fffe
0011
0015
000d
0019
0012
fff5
0001
0006
ffef
fffa
0008
0007
0005
0010
0008
0000
0011
0020
000d
000c
0029
0016
000f
0009
fff5
ffed
0006
ffff
fffe
000d
0004
0014
0013
fffd
fff6
fffa
fff4
fff1
fffc
ffff
fff1
fffd
fffa
0008
000e
0016
0014
0016
003c
0020
0013
000c
0001
fff0
0000
0019
0014
001c
0014
0003
0013
0003
0000
0003
fff1
0007
0015
0004
000b
fffe
fffb
0007
0004
0008
0009
0006
001c
0019
0010
0003
fffc
fff1
fffb
0010
0019
001e
0015
000c
0006
0016
0000
0006
000e
0007
0003
0004
fffb
fffc
fffe
000e
0003
000a
0004
ffe7
fff9
fff7
0002
fff3
fffa
fff1
fffe
0021
0024
0014
0012
001b
0013
0013
0018
0010
001a
000e
0011
0000
0004
0004
0007
0019
fffc
fffa
fff2
fff0
ffed
fff1
fff5
0008
000c
ffe2
0007
0013
000b
000f
000f
0018
001f
001c
0017
0017
0010
0011
0010
0010
001c
0009
0015
0007
000a
0008
fffe
fffb
ffe7
ffe7
fff8
000a
0013
000e
0007
fffb
000e
fffb
fff6
0004
001e
001b
002f
0033
0020
001d
0018
0015
000e
000e
0000
0000
000f
000d
0004
ffec
ffde
0009
0001
0003
000b
0005
fffa
ffe8
ffef
fff2
fff3
fffc
fffe
0012
001e
002f
002c
000d
000f
000b
0012
0017
fff9
fffb
0001
fffc
fffc
0000
ffdf
ffed
ffed
0005
001e
001a
fff0
ffe6
ffe5
ffed
fff6
ffe5
ffd5
ffd3
ffe0
fff3
ffff
0009
0000
fffd
0013
000c
0003
0001
0004
fff2
fff5
ffeb
ffe3
ffee
fffb
fff8
000d
0018
0001
ffee
ffeb
ffe0
ffe2
ffcf
ffcb
ffc7
ffc8
ffca
ffe4
ffe5
ffef
fff7
fffd
0001
0002
000b
000a
ffed
ffeb
ffd3
ffe4
0014
ffea
fff5
fff9
fffc
0001
fff6
ffe9
ffe0
ffdb
ffe2
ffdc
ffd8
ffd7
ffc6
ffce
ffe8
ffe7
ffea
fff4
fff6
ffff
000e
0004
fff2
fff5
ffe5
fff1
fff0
fff1
0009
0006
fffc
fff3
000a
fff9
fff2
ffe3
ffec
fffa
fff1
fff0
ffe6
ffea
fff4
fffb
0003
fff6
0006
000a
0003
000e
0001
fff7
fff7
0008
ffff
0007
0004
0010
0015
0005
0019
0008
ffef
ffe8
ffea
fff3
fff1
fff9
fff3
fff2
fffa
0003
fff4
fff7
fff9
fffc
0011
0018
0011
ffff
0000
0007
0006
0005
fff5
fffb
000b
0002
001b
0007
fff9
0002
0006
fff9
fff9
0001
fff8
fffa
fff7
fffe
ffed
fff8
fffd
0012
001d
000d
000d
0017
ffff
fff9
0003
0004
0002
000a
0012
001b
0030
0011
001c
0009
000d
000e
000e
ffff
fff3
fff1
fff4
fffa
fff4
ffee
fffb
0005
0010
0007
fffe
0007
ffff
fffa
000e
0007
0007
fff7
0005
0019
001f
0018
0016
000a
0006
000a
000c
0004
ffec
0002
0002
ffec
fff2
fff1
fffb
000f
001f
0023
0013
0016
ffe3
fff1
fff3
fffd
0004
fffd
000b
0001
001e
0040
0028
0022
0025
0027
0036
0013
0020
001c
000c
000a
0017
000d
0018
002d
0029
0035
0025
002e
001a
fff6
ffff
fffd
0007
fff7
fffd
0012
000f
002f
001f
0015
0010
001a
0016
0027
0026
0019
001d
002f
0023
0018
0011
000d
001b
001e
000d
fffb
fff5
fff4
fffd
fff6
fffe
000a
0003
0009
ffee
fff2
ffee
fff2
fff6
0005
ffe9
fff8
0015
0004
fff1
0001
ffff
fff3
0007
fff2
0016
fff8
0000
fffe
0008
0008
0006
fffb
fffc
0004
0003
000a
0007
000a
fffb
fffc
fff9
0002
fff9
fff8
000a
0008
0010
0000
fffa
0002
fff8
fffe
fff9
fffc
fff9
0006
0005
fff9
0000
0008
fff7
0003
0007
fffc
0000
0002
000f
000b
000f
ffff
fff1
000f
fff6
fff7
fff1
0006
0016
0005
fff2
000b
000c
0016
0016
0014
000a
0003
fff8
fffb
fff8
fff6
0003
0005
fff7
0001
0005
fffd
000f
0017
0012
0008
000e
fff2
0006
000c
000a
0003
ffff
fff8
fff6
0002
fffb
0000
fffe
0004
000b
0005
0003
0008
fff9
0017
ffee
0007
0009
0011
0005
001e
000b
000b
0002
0019
0007
0010
000e
000e
0002
0004
000d
001b
0019
000b
000a
000b
0005
fffd
fffb
0004
fff2
0005
ffe9
0003
0013
fffb
fff6
000e
0003
ffff
000d
000d
0006
fffa
000d
000b
0011
0013
001a
0009
0006
000d
0006
0017
0000
fff4
fff9
0007
000f
0006
000e
000c
0007
fffe
0000
0013
0006
0005
000d
fffb
fffe
0008
0012
fff5
fffe
ffff
000d
0009
0019
000c
0003
000a
ffe9
ffeb
fff8
0011
000f
fffe
0005
000b
000c
0014
000b
0025
0014
0013
0006
ffee
fff8
fff5
fffa
fffd
fff7
0004
fff9
0001
000b
fff5
0007
ffff
fffa
fff2
0005
0023
000b
0007
0021
0002
0005
0010
0018
0021
0015
001d
0014
0006
ffff
fff2
0005
0019
0005
0011
0005
fffb
0008
fff0
ffea
ffd6
fff5
fff8
0004
0019
0014
fff6
0019
0007
ffff
000f
000b
0012
002e
0023
000e
0010
0012
fffe
0004
0014
0002
0005
0008
ffed
fff9
ffff
ffd0
ffe0
fff2
0001
ffff
0014
0000
000f
000e
fff9
fff5
0007
0008
000f
0009
0011
0007
fff8
fffa
ffff
fff3
0002
000a
fff2
ffe7
ffea
fff4
ffed
ffda
ffdf
0011
001c
fff7
0006
000b
fffa
0001
0000
fff4
0014
0014
fffa
0001
ffe5
ffdb
ffcf
ffe2
fff5
0002
0006
fff4
ffed
ffed
ffeb
ffeb
ffeb
fff3
0006
0018
0015
0006
ffff
fffa
fff1
ffea
ffee
fff0
ffed
ffe0
ffdb
ffcc
ffc3
ffb3
ffb8
fff5
fffd
0008
fff0
ffde
ffe1
ffe0
fffe
fffc
fff6
0018
001f
0008
fff6
0008
0004
ffef
ffe9
ffd0
ffca
ffb6
ffb6
ffb2
ffa4
ffbc
ffbf
ffc9
ffe9
0002
000a
0003
ffee
fff3
ffef
fff8
fff9
fff9
0004
001b
0017
001a
fff7
fffb
0007
fffd
ffe1
ffbf
ffb2
ffa0
ffa4
ffb6
ffc8
ffcb
ffd9
ffeb
0010
001e
001a
0002
ffed
0002
0004
0010
000a
fff1
0016
0029
002b
0020
000b
000b
ffe5
ffff
ffed
ffc3
ffb9
ffcd
ffcb
ffda
ffe0
fff8
0003
001a
0019
001a
0008
000e
fff7
0001
0009
0015
000d
0013
0012
001f
0018
0026
0008
fffc
ffed
0004
ffe7
ffe1
ffe2
fffe
fff3
fff0
0005
0009
000c
001f
0031
0016
0012
0004
000b
0017
0018
ffff
000d
ffff
0010
001b
000f
0013
0007
fffa
fff3
000d
fff8
ffe5
ffef
0008
000b
000d
0015
0017
0015
0022
0020
0016
0005
0009
0001
0003
0005
0000
0015
ffff
001b
0013
fffb
0011
000d
ffff
fff2
0003
0000
ffff
0008
0019
000c
0023
0018
001d
0015
0021
0020
0008
000c
fffb
fff2
fffd
0001
0004
0000
ffff
0002
000d
0008
0010
000f
0002
fff9
fff0
0006
000e
0018
0015
0022
0023
0009
000b
0004
0019
0011
ffff
0000
000d
0002
0004
0012
fff8
fff7
0003
fffe
0011
002a
001b
0010
0003
fff9
fffa
0010
000f
000a
0010
0016
000b
000a
000d
0011
0010
0016
0012
0001
fff8
0004
0005
fffc
0007
0002
fff5
fff3
fffb
0021
0006
0004
0006
fffd
001e
0019
0021
0009
001e
001c
0013
0008
0005
fffa
0002
000d
000a
0009
fffd
0003
fff8
fffe
0006
000b
ffea
fffb
fffb
0017
000a
fffb
fffa
fffd
001c
0019
0013
0005
0001
0011
0009
0008
000a
000a
0000
000b
0005
fff7
fffe
000d
fffa
ffff
fffd
0005
0004
0006
fffb
000e
0010
0008
fff3
fff1
0013
0000
000a
001b
000e
0009
fffb
0002
fffc
0000
0007
ffff
fff9
0006
0008
fff6
fffc
fffb
fffa
0006
0002
fffb
000b
000a
ffe5
fffd
0002
0005
ffff
fff4
0008
0004
0002
0007
fffc
0004
fffb
0001
0005
0005
fffa
0003
0006
ffed
fff2
fffa
0001
0005
000a
fff4
fff3
fffb
ffec
0009
0009
000a
fff6
ffe6
0009
fff6
0002
fffa
0000
0005
fff2
0007
0010
000c
0015
ffff
0006
ffff
ffeb
fff6
0006
fffb
ffee
ffeb
0001
000f
0004
0006
000b
fff9
fff7
001a
fffd
ffeb
fff9
fffc
fff6
000b
ffff
000f
000b
fff9
000a
0004
fffd
0007
fff1
ffe4
ffda
ffda
ffe6
fff4
fff8
0002
0006
fff9
0004
fffa
fff7
fff3
fff9
ffe8
fffb
0006
0001
fffc
fff5
ffea
ffe6
fff7
fff2
0003
0002
fff5
fff7
fffd
0001
fff3
fff8
fff7
000a
fffc
0007
fffd
000a
fffa
fffd
000a
0004
0003
0011
000b
0016
001d
0016
0012
0016
0012
0004
000a
ffff
0016
ffff
ffff
fffe
fff7
ffea
0005
fff6
0007
fff9
0005
ffff
0008
ffff
ffff
fffb
0003
fffe
0009
0001
fffe
fff6
0003
0009
ffff
fffb
ffff
0000
0001
fffb
0009
fffb
000b
0003
fffe
fffe
fffc
0004
0000
0007
0001
000b
fff5
0002
0006
0009
0009
000d
0016
0002
fff0
fff8
0005
ffee
ffe4
fffd
000d
0011
0009
0013
0007
fffd
0004
0001
0002
fff6
ffff
000a
0001
0005
0002
ffff
fff4
0008
0011
0006
fff2
fff0
fffd
000d
fff5
ffe4
ffdc
ffec
fff8
ffe8
ffe6
fff7
fffc
ffee
fff9
0006
000b
fff8
fffa
0006
ffff
fff6
0013
ffff
fffc
000b
000e
001d
fffe
0003
0017
0013
0013
001f
000e
0001
0016
000e
fffb
ffec
ffed
ffe3
ffe6
ffef
0005
fff7
0002
0001
0002
000e
002a
0014
0003
0011
ffff
0014
0008
0008
0006
0014
000c
fffc
fffc
fff6
ffe1
ffed
ffe6
ffca
ffc6
ffe2
ffd1
fff3
fff7
0000
fff7
0004
fffb
0006
001e
0015
0004
000e
000f
0016
000c
0015
000d
0013
0007
000d
fffd
fffe
fffc
0000
fff6
ffe3
ffd8
ffc6
ffce
ffda
0008
0015
000d
fff7
0002
000e
0013
0009
fff6
0003
fffb
000e
0015
0011
0019
000d
0017
001d
0015
000e
0009
0015
fff9
fff7
fff9
ffec
ffe2
ffe4
000d
0004
fff5
0004
0018
0012
001c
0001
fff6
000e
0004
fffc
000c
0007
000d
001b
0020
0014
0014
001a
000c
0000
fffc
fff1
ffef
ffec
ffec
ffe1
fff5
fff7
ffe5
fff6
001a
0008
0012
000b
0000
000e
ffff
0014
0001
0012
000c
000a
0013
001b
000f
000e
0003
000e
0005
fffc
0005
000b
ffe5
ffd5
ffd5
ffea
fff9
0006
001d
0006
0015
001f
0015
0015
000b
0001
0005
0004
fff9
000c
0013
000f
0014
0003
000b
0000
000f
0011
0008
000f
ffeb
ffd7
ffe6
fffa
fff8
000b
0019
000c
0020
ffff
fffd
000c
fffa
fffb
0001
0004
fff4
fff1
0005
001a
0009
0014
0010
0007
000e
0018
0017
001b
0000
ffb1
ffe1
ffe5
ffeb
0015
0007
001a
0020
0009
fffc
fffa
0004
fff8
fff5
ffea
fffd
fffc
0018
0012
000e
fffc
0018
000b
000f
001c
0015
0010
0002
ffb3
ffe2
ffef
ffdd
0011
fffa
001f
0013
0005
fffa
fff3
0000
fffe
fff6
ffea
ffed
ffec
0004
0014
0010
0017
001e
001f
0007
000a
0002
000f
0006
ffc8
ffdd
ffdd
fffe
ffeb
0001
000c
0001
001b
fff7
fffd
ffef
fff1
ffee
fff3
ffe7
ffe9
0005
001a
0018
001b
0017
0009
fffc
fffe
fff2
ffeb
ffdc
ffcd
ffd5
ffde
ffed
fff4
000b
001b
000a
000f
fffa
ffef
fffa
fff1
fffa
ffeb
ffef
fff8
0008
0001
0003
fffc
0001
0010
0003
0007
0008
ffea
ffff
ffd2
ffd9
ffd9
ffed
ffee
000b
ffe9
fffb
000a
fffd
fffc
fffb
ffe7
ffe8
fff6
fffa
fff7
0003
fff5
000a
fff4
0010
0015
000c
0016
0018
0010
000a
fff6
ffd7
ffeb
fff5
0009
0016
0003
0001
0018
fffe
fff4
0008
ffff
fff5
fff9
fffc
ffff
fffe
fff0
fff7
0001
0011
0013
000e
0015
0001
000a
0003
0000
ffb5
ffc2
fff1
0002
000e
fff6
0005
0009
ffef
fffb
0001
ffff
ffed
fffe
fff5
0002
0001
ffe6
fff9
fffe
0000
0008
0017
000d
000d
0008
0002
fffc
ffec
0002
000b
000b
0015
000b
0012
fffc
0001
fff7
ffff
0005
fff2
fffd
0008
fff0
ffe7
fff6
fff8
0002
0004
0004
0010
ffff
0011
0010
fff7
ffe5
ffe3
0012
fff1
fff9
fff6
0007
000c
0007
0006
0001
ffff
fff2
ffff
0003
ffe7
fff1
ffec
fff0
fff0
fff9
fffb
fff5
0015
0000
000e
fff6
ffe9
ffef
ffe0
ffe5
ffea
ffff
fff1
ffe8
0002
fffc
ffff
000d
fffc
fffa
0000
0000
ffed
ffe3
ffef
fff9
ffed
fff3
fff5
fff4
0000
0009
fff0
fff7
fff1
0000
fffd
fff2
fff7
fff7
000f
fff6
fff8
fffa
fffb
fff8
fff0
fffb
0000
fff4
fff4
fff0
fffc
fff1
ffef
0004
0003
fffa
fff5
ffeb
ffe1
fff1
ffe0
ffee
ffec
ffee
0002
0002
0002
fff1
0000
fff7
fff4
fffc
ffff
fff3
fff9
fff6
fffe
fffa
0004
fff6
fffc
0008
fffa
fff8
fffb
fffa
ffe6
ffe7
fff9
fff2
ffef
ffdd
0002
fff8
fffb
0011
0015
0000
0004
ffff
0012
fff8
fff6
fff8
0005
fff3
ffff
0009
fffc
fff5
0006
ffff
ffef
fff3
ffeb
fff3
fffd
0007
fff9
ffea
fffe
0004
0006
0007
001c
0040
0030
0026
001b
ffff
fffb
0013
0013
0005
0005
0010
000a
000c
fff7
ffec
ffef
0000
ffeb
fff9
000d
fff8
ffee
ffff
0004
fffa
ffff
000b
fffd
0029
0051
001c
0030
0027
001c
0026
001e
0024
001c
0012
0001
000a
000c
0005
0021
0017
000f
fff7
0006
0006
0000
0001
fffa
fffb
fff9
0007
0011
0015
0030
0051
0047
0042
0047
0049
0038
0024
003c
0042
0027
0035
0043
003b
0028
001f
001f
0023
001d
0012
0003
0007
0005
fffa
0009
0009
0005
000f
0008
0021
0020
0016
0018
002c
0020
0018
002b
0028
001e
0023
0036
002b
0022
001c
0018
0012
0019
fff8
0002
ffff
0002
0001
000b
fff7
fffc
0009
0005
0000
0008
0000
fffd
fff7
fffd
fffe
0009
0002
fffa
0005
0009
0004
0006
0004
fff6
0007
0006
fffa
fffd
fff7
fffb
fffd
fffa
fff7
0001
fff8
fff8
ffed
fff1
0003
fff5
fff8
ffe6
ffe8
ffed
ffef
ffec
ffe3
ffea
fff0
fff8
fff7
fff8
fffb
ffea
0003
0006
ffff
fff8
fff9
fff9
fff6
fffa
0002
0006
ffe4
ffdf
ffe6
ffd9
ffdf
ffd8
ffd8
ffdf
ffd6
ffe0
fff4
fffb
ffe7
ffeb
ffec
fff2
fff1
fff0
0003
0011
fff6
0002
0005
0001
000b
fff9
fff7
ffed
fff1
ffde
ffe7
ffe3
ffd3
ffbe
ffc5
ffae
ffc9
ffd3
ffd4
ffcf
fff6
ffff
000c
0007
0016
0005
fffe
fff8
0003
fffb
0000
fff7
000b
fff0
ffe1
ffe6
ffe1
ffd5
ffd6
ffe2
ffc3
ffc3
ffc8
ffe4
ffe7
fffa
ffec
0000
fff9
ffef
0007
000d
fff8
0003
0010
fffd
fffe
fff4
fffa
fffd
fffc
fff4
ffec
fff7
ffe8
ffe0
fff5
ffda
ffce
ffd9
ffe4
ffe9
fffb
0004
fffc
0004
0005
ffe2
ffe2
fffd
fff5
ffed
fffa
fff8
fff8
0005
0009
000a
000e
000e
fffd
000f
0008
fffb
fffc
fffe
fff7
fff3
fff9
fff6
ffed
ffee
ffe1
ffee
ffea
fff5
ffe3
fff3
ffee
ffdd
ffea
fff2
fffb
0002
0001
0019
001a
0020
0008
0018
0011
0008
ffff
0000
fff2
fff8
fff2
ffed
ffe2
ffe3
ffea
fff1
fff8
fff0
0000
0006
ffff
fff7
ffe0
fffc
0008
fffd
0012
001b
001e
0018
000c
0011
0018
0012
0011
000a
0004
0006
000b
fffc
fff5
ffec
ffed
0003
0005
0001
0013
0002
0010
0011
0017
000b
fff8
0010
fffd
001e
0015
0012
0018
000d
001e
0015
001a
001a
0013
0019
001a
0017
001b
000b
0018
0009
0014
0007
000e
0012
001d
000b
0019
0029
0005
0010
0000
000b
0006
0003
001a
0029
0021
001c
001e
0027
0034
0038
0034
0039
0035
0023
0024
0019
0011
0019
0022
0017
0009
0004
0015
0024
002a
000e
0006
0015
0011
000f
001f
002d
001a
0016
001c
001f
001f
002d
0024
0033
0027
0024
000b
0003
0018
000b
000f
0010
000b
0003
fff8
000a
0033
0001
0005
0017
001b
000c
000d
0010
0011
000f
0019
000f
0009
0014
0005
fffe
fff4
fff5
ffeb
fff1
fff9
fffa
0000
fff3
0000
ffe1
ffda
0016
0025
ffff
fffa
000d
001c
fffa
fffa
0006
fff3
fff7
fffb
fffa
fff9
fff6
ffea
ffd9
ffeb
ffe2
ffe9
fffc
fff3
ffff
fff8
fff4
ffe7
ffe3
0003
0015
0026
0013
0007
0018
002d
fffa
ffec
ffea
ffe5
ffdd
ffe6
ffe4
fff2
fff0
ffe6
ffdf
ffe6
ffea
fff7
fffa
fff5
0002
0006
fffc
0009
0009
0000
0003
001d
000e
fffb
0002
001a
fff8
fff9
ffde
ffe1
ffea
ffed
fff0
fff1
fff4
0001
ffff
fffd
ffff
fff1
ffff
0002
0006
fffd
0011
0006
0010
0019
000b
0020
0026
fffd
fff4
0008
fff5
fffc
ffce
ffde
ffee
ffef
fff0
fffd
fff6
fffe
fffa
0008
0003
ffff
0016
001a
000c
0014
0011
0026
0012
000e
0017
0033
0023
fff9
fff6
fffd
ffe0
ffef
ffea
ffef
ffee
fff6
fffc
fffc
fffa
fffe
0007
fffe
0011
0004
000c
0019
fff9
0015
0011
0014
000c
0011
0026
001d
0010
fff8
fffb
000a
fff2
fff5
fffa
fffd
fffa
ffff
ffff
fff3
0001
ffff
fffa
000d
0002
0002
0005
fff9
fff8
fffe
0004
0002
0003
0003
0004
0020
0003
0006
0003
0021
fffa
0000
ffe7
fff5
0002
fffc
fff2
0000
fff5
fffc
0005
fff8
fffe
fffb
fffe
fff7
fff1
ffe2
fffa
0000
0008
fffa
000b
0018
fff5
000a
0002
0006
0009
0007
fffa
fffb
fff6
0006
0006
fff9
0009
0000
0006
0000
fffa
fff5
fff5
ffe8
ffed
ffec
fff1
fffc
000b
fffb
fffa
0012
0009
fffc
fffa
fffe
ffed
0002
fffc
0003
ffef
fffa
0014
0001
000b
0001
000b
fffc
ffff
fffd
ffff
fff0
ffe3
ffe0
ffd5
ffde
fff9
0001
fff9
ffeb
fff7
0008
0004
0001
ffed
fffc
fffe
fffa
fff6
0001
000f
0003
0001
0013
0007
0002
000e
ffff
fff1
0000
fff9
ffe5
ffd4
ffe5
ffee
000c
fff7
ffe4
ffff
fffe
0007
fffd
ffee
001a
001c
0012
0007
fff7
000c
0003
0001
fffb
fffb
0000
000b
0007
0000
fff8
000b
fffa
ffe4
ffec
fffb
0002
000d
fffc
0005
fff6
0006
0005
0010
fffe
0011
0006
fffe
fff8
ffff
fffb
fff6
fff9
0001
fffc
0003
fffd
0010
0004
0004
0000
0002
fffb
0009
000f
0004
fffd
fffa
0003
fffd
ffe6
0013
000b
ffed
fffa
ffe2
fff2
ffe7
fff5
fff4
0004
0000
ffff
000c
0003
000e
0004
0004
fffe
fffe
fffc
fff4
0016
fff9
000a
0002
0008
0000
0006
ffef
ffdd
ffea
ffe1
fff0
fff6
fff2
ffe9
ffe7
fffe
fff9
fff4
fffc
fffd
fff1
ffee
001f
ffff
ffeb
fffa
ffe9
fffc
0009
000b
0009
ffff
0008
fffa
000a
000f
000e
fffa
fff3
fff6
fffc
0009
fffe
fff0
0004
fff5
ffec
fff3
0009
ffef
fff5
ffff
fffd
0002
0016
ffff
0005
0004
fffa
ffff
fff6
fffb
ffff
0003
fff8
ffff
fffd
fff9
fffd
0002
fffa
0003
fff9
fffc
fffc
fff6
000a
fffd
fffc
fffa
fffb
0003
0006
0003
fffb
000a
fffe
fff8
fffe
fffa
fff9
0005
000a
0005
fffe
0003
fffb
0000
000a
000b
0009
fffe
fff6
0006
fffe
0006
0006
0005
0002
fff8
ffff
0000
fff6
0005
0004
fffd
0008
000a
000d
000a
fffe
0003
fff4
ffff
0008
fff5
fffe
0000
0002
0000
ffff
ffef
ffe2
ffec
ffeb
fff5
ffff
fff9
fff9
fffe
000b
fffa
0004
ffff
0006
0003
fffa
fff8
ffee
fff8
fff2
fff9
000a
fff3
0006
0011
0005
000a
000a
000c
000b
fffe
0003
fff1
fff0
ffe3
ffdf
0000
000c
0006
0001
0009
0001
ffee
0000
0002
ffe5
0002
000f
fff8
0011
fffe
0005
fffc
000f
000a
0014
000a
0009
000c
0017
fff2
fff7
fffc
fffb
fff2
fffb
000f
fffc
fff5
fff7
ffee
fff1
fffa
ffe2
fff7
fff2
0009
0003
0009
fff9
fff5
0004
fffe
fff5
0001
0009
000d
0000
0007
000d
0017
000a
0001
000f
0000
fffc
fffb
000a
000d
0007
0004
fffc
fff8
000c
0003
000a
0006
0009
0012
0003
0001
ffff
0003
0008
0012
000b
0006
0010
000f
0004
0008
0007
000a
ffef
0008
fffd
001c
0015
0007
0004
001a
0017
0017
0011
0019
000b
0015
0014
000a
0002
0013
0014
0026
001e
0014
0013
0017
000b
fffe
fff3
fff2
ffe6
000b
0006
0018
0008
000f
000f
ffff
0018
001b
000b
0013
0010
0024
001e
002b
0021
001d
0022
0018
0022
000e
0006
0010
0012
0000
ffe2
fffd
fff3
0009
0004
0007
0005
0003
000f
fff5
0005
000b
0011
001a
0019
0018
0022
001b
000c
0013
0013
0017
0010
000e
0005
0010
0014
fffc
ffed
ffdf
0005
fff6
0008
0011
0009
000b
0013
0004
fffd
0006
0011
0006
000f
0010
0015
fff9
0005
ffff
0012
0007
0006
fff9
0001
ffff
000c
fffa
fff7
0007
0014
fff1
0005
000d
fff3
0003
000c
0000
fffd
fff0
0008
fffb
0002
ffef
ffe4
ffc0
ffd9
ffe6
fff5
000a
fffc
ffff
fff2
fffd
0000
0010
fffd
0016
fff3
fffe
000a
000e
ffeb
0002
0001
fffb
0000
fff8
fffa
fff2
fff0
ffe3
ffbd
ffb0
ffce
ffec
fffd
fff0
fff1
ffe3
fff3
ffd8
fff8
0001
0000
0004
ffed
fff6
0014
0020
fff1
fff1
ffef
fff3
fffd
ffea
ffef
ffed
ffe4
ffd6
ffd4
ffd8
ffca
ffe9
fff4
ffe8
ffdf
ffe5
ffdf
ffdd
fff0
000a
fffd
fffb
000e
000a
fffc
001a
fffa
fff2
fff9
ffeb
fff6
fff3
ffff
fffe
ffeb
ffd7
ffd4
ffdc
ffec
ffeb
ffed
ffdf
ffe9
ffe6
ffec
ffda
ffe6
0001
fffb
0007
0016
000a
ffe8
0012
fff5
ffef
ffff
fff6
0007
fff1
0000
fffa
ffe4
ffe5
ffda
ffdf
ffdd
ffe4
ffe2
ffdc
ffde
ffef
fff0
ffdd
fff4
0001
000c
001a
000a
0003
ffe7
fff7
ffec
fff0
fff9
ffe4
0000
0006
fff8
fffd
fff5
fff6
fff2
fff4
fff7
ffee
ffe5
ffdd
fff2
ffee
ffef
ffef
fffd
0005
000b
001f
0007
fff7
ffe5
ffe4
fff6
ffe9
ffe7
ffe9
fff6
fff1
ffee
0008
fff1
ffeb
fff4
ffed
fff4
ffe9
fff3
fff1
fff5
0002
fffc
fffc
fffe
0002
0032
0013
0016
0002
fffc
ffe4
ffea
fff0
fff0
ffe9
fffa
fffe
fff9
fffa
ffea
fff0
ffeb
ffeb
fff3
ffe8
ffef
0001
fffa
fff3
fff7
0009
fff9
fff4
001a
0018
001b
fff9
0006
000d
ffea
fff7
fff7
0003
fffc
0000
ffff
0000
fff9
ffff
fffa
fffd
fffe
fffd
0005
0000
fffe
000e
0011
000b
ffee
fff6
001a
0019
0003
fffc
0005
0015
fff7
0008
fffd
0004
0007
0013
0013
0009
0007
001c
0012
0011
0017
0009
0010
0006
0019
001b
0013
0010
0009
0001
0009
002d
0008
0000
0009
0013
0011
0005
0012
0006
000d
0017
0004
0011
001d
001a
001c
0018
0018
001b
0016
001b
0022
0014
001d
0019
0015
0016
001e
0017
0002
0009
fff1
0007
0010
0009
001a
0019
0012
000a
0021
0007
001a
000d
001a
0014
0012
0009
0018
0016
000f
ffff
0000
001c
0011
0005
000f
0001
0001
0003
fffe
fff2
fff3
0003
0016
002b
000c
0010
000e
0012
0018
000f
000d
0015
000f
000a
0019
0006
000f
fff1
fff4
001c
000e
ffff
000a
000d
0008
000b
0001
0005
fff5
0000
0019
000e
000d
000f
0013
0001
000e
0016
001a
0026
0015
0008
0023
0025
0019
fffd
000d
0012
0002
001b
0012
fffc
fff9
fffe
fff8
fff7
0016
0015
000d
0004
000e
0014
0011
fffe
0009
000f
0016
000c
0020
0016
0022
001a
000e
fff0
fff4
000e
fff6
000a
0005
0007
0001
fffc
fffa
fffd
0001
ffff
fffd
fff0
000a
0009
ffff
fffd
0009
0010
0009
0003
0012
0012
000a
0004
001b
0004
fff4
fff4
fff8
fff4
0005
fff6
fffa
fffe
fff6
fffc
0008
0018
0010
001d
0028
0011
001b
001c
ffff
0011
0019
fffe
0019
0022
0023
fff7
fffc
0008
fffb
fffe
000b
0007
ffff
fffc
fffa
fff8
fffd
000b
0006
0004
fffb
fffb
000a
0006
0004
000b
fff5
0012
0013
0012
fff9
0006
fffb
0007
fff6
0007
fff6
0004
fffe
fffe
fff5
0007
ffff
fffb
fffb
0008
ffff
fff7
0001
000c
0011
000b
000d
0007
0021
0013
0016
000a
0029
0025
000e
0019
0011
001d
001e
000f
0018
0006
0001
fffa
fffd
0001
0006
ffff
0006
0009
0017
001e
0017
002b
0030
001b
0010
002d
0042
0040
003e
0022
0005
0004
0016
0016
0017
0019
0018
001a
0007
0007
000a
fffd
0002
0006
0004
000c
fffc
fff2
ffe4
ffe4
0002
fffb
fff5
fff8
fff6
0000
ffeb
fffc
fff2
ffe4
fffe
ffe9
ffef
0000
0007
0005
ffed
ffff
fff7
0003
fff8
fffe
ffea
ffef
fff3
ffde
ffd8
fff5
fff9
ffef
ffef
0002
fffa
fffc
fff4
000a
0004
fff8
0000
0000
ffff
fffe
0005
ffe7
ffde
ffe4
0009
fffa
0002
0018
ffee
ffea
ffdd
ffef
ffeb
fffb
fff5
fff8
fff6
fffb
fff1
0002
fff9
fff6
0005
0003
000d
0006
000f
001b
0016
0016
ffed
fff1
000a
fffc
0002
fff5
ffe0
ffeb
ffde
ffda
fffd
fff5
ffed
fff8
fff5
ffff
fffd
fff4
fff5
ffff
0002
0006
0000
0005
001c
001a
000c
0015
fffd
fff7
ffff
0008
0000
fffa
ffe7
ffd5
ffdc
ffe4
fff8
fff0
ffec
0001
0004
000c
fffa
0002
ffef
fff9
0009
000e
fffe
0007
0014
000c
0003
ffee
fffc
fffe
0000
fff6
0009
000f
ffe9
ffdc
ffe1
ffe6
fff1
0002
fff6
0008
0003
0005
0015
0011
0002
ffee
0006
0003
0008
0007
0013
0001
fff0
ffe5
ffdd
ffe1
fff2
fffc
fff6
0006
fff8
ffdd
ffd6
ffed
ffec
0003
0002
ffec
ffff
000a
0005
000c
0006
fff4
ffe7
fff1
ffea
fff7
fff6
fffc
ffe6
ffd6
ffda
ffe9
0004
0007
0002
000d
ffe8
fff0
ffea
ffef
ffeb
fff7
0002
fff6
ffee
0006
0013
001a
000d
fff8
fff0
fff4
fffa
fffd
000a
fff8
ffe0
ffc1
ffea
0006
0007
0002
0004
0002
ffe7
fff5
fff9
0002
ffff
fff9
fff8
0004
fff6
0006
0012
000d
0002
fffa
ffd9
ffe1
fff3
fffb
0008
fffd
ffe2
ffd2
fff4
ffe8
fff8
0003
000c
0011
0002
fff9
fff4
0004
ffef
ffff
0002
ffe6
0000
000b
0008
0009
0010
ffef
ffdd
ffe4
ffe0
fff1
000b
fff2
fff2
0000
0008
fff8
ffff
0002
fffe
0001
fffc
fff9
0005
0003
fff2
0005
fff4
ffde
fff1
0008
0009
001b
001d
fffa
ffee
ffe4
ffec
fffc
0003
0003
fffb
0014
001a
0012
0010
0007
0001
0002
fff6
fffa
0002
fffb
fffa
fff1
fff0
ffe9
0004
000c
0018
001a
000f
fff8
ffe0
ffe2
ffe8
fff1
ffea
fffa
0012
001c
001b
0035
001e
fffe
fff9
0013
ffff
fff4
ffe7
ffdf
ffe9
fff8
0004
fffc
000d
0015
0025
0028
0010
ffee
ffdc
ffd8
ffd9
ffe5
ffec
fffb
fff2
000b
0027
0028
0022
0005
0006
0002
0005
fff8
ffed
ffe5
fff4
fff3
fff8
000f
0021
0026
0020
0022
fffc
ffe1
ffdd
ffea
ffdc
fff2
000d
fffd
fff8
0000
0040
002f
0020
fff8
fffb
fffe
0006
fff4
fff9
ffe8
fff5
fffe
000d
002b
002c
0028
0021
0002
ffdf
ffdf
ffda
ffe9
fff8
fffd
0003
0004
0006
000a
003b
001f
0016
ffff
fffc
fff4
0014
fffd
fff2
ffee
fff9
0009
0022
0028
0027
002b
001a
fff8
ffdb
ffdb
fff6
fff6
fffb
0002
000e
0006
0005
0005
003f
001c
0025
fffe
000b
fff3
0007
fff4
ffe6
ffe9
0006
0000
0022
0023
0031
001a
0003
ffee
fff1
fffa
fffc
fff8
fffc
000c
0018
0009
0010
fff9
0038
0028
0011
ffff
0006
ffec
0005
ffee
ffe8
fffb
0009
001a
000d
0023
002a
001e
fffe
ffeb
fffb
fff8
0000
000a
0004
0009
0007
000c
fff8
0007
000d
001f
fff9
0001
0006
fff3
000a
0008
fff6
fff9
ffff
0007
0021
0014
0003
0003
ffff
fff9
fff0
fff6
0009
fffe
0015
001c
0017
000f
0012
0007
0002
0008
ffff
0005
fffe
fff8
0000
fff8
0011
fffe
fff9
fffe
0018
000e
fff8
0005
fff7
0005
fff8
0005
fffa
0016
0019
0020
0016
0002
fffa
fff5
fffd
fff0
fffd
fffd
fffc
fff8
fffa
fff8
0004
ffff
fff1
fffb
0000
0008
000e
0013
fff8
fff9
fffb
fffc
0005
0005
001d
0016
0009
0009
ffe8
fff0
fff6
0000
0006
0008
fff6
ffff
ffe5
fff8
fff2
fff0
fff5
ffeb
0004
fff8
0000
0002
fffe
fffe
ffeb
ffdf
ffed
000f
0000
fff4
ffe7
ffe7
ffe7
000c
000d
0005
fffa
0004
0001
fffb
001a
0011
fff5
fff4
0006
fff5
fff0
ffee
0000
ffee
ffe8
ffef
ffcb
ffbb
ffc5
ffc6
ffbf
ffca
ffd8
ffeb
0000
ffff
000c
000c
fffb
fffd
0005
fffe
ffec
ffe7
fffc
fffd
ffff
fffe
ffe7
fff3
ffed
ffd2
ffcb
ffc9
ffde
ffd7
ffdb
ffd1
ffe0
ffec
ffea
ffec
fffa
fff4
0009
000a
fffe
fff9
fff9
ffff
0001
0005
ffff
000d
0003
fff8
fff8
0010
0006
fff0
fff5
ffef
ffef
fffd
ffe2
ffea
fffe
0003
0002
0006
fffa
fffe
fffb
0005
fffa
fffc
0009
fffa
000a
fff6
0007
0004
0004
0009
fffc
0001
0008
0013
0006
0006
fff6
fffe
fff8
0006
ffff
fffd
fffd
0006
ffff
0009
ffff
0000
fffc
ffff
0000
fffe
000a
fffd
000e
000a
001a
000a
0021
001e
001b
0025
0027
0016
001f
001e
0020
0015
0015
002f
0015
0014
001e
0006
fffe
0008
ffff
0005
fff7
0007
0009
0011
000b
0027
0016
001c
000c
001b
002a
0018
001a
0015
0023
0013
000e
0021
0025
0027
001d
001f
001c
0004
fffc
0005
0008
0008
fff7
0007
001a
0017
0001
0018
0008
000a
001a
001c
0021
0019
0023
0002
fffc
fff7
0009
0014
0008
fff5
0006
0006
0010
0012
fff4
fffa
fffc
0005
0006
0003
0015
0010
fff7
fff2
ffef
000d
0004
0014
fffe
fffa
fffc
fff8
0009
0015
0002
fffe
0002
000b
fff0
fff7
fffa
ffe6
fff5
0005
001b
0004
0007
001f
0004
fffd
ffea
fff3
0003
0000
0002
fff1
ffe9
ffe0
fffa
fff0
0002
fff5
fffd
fff8
0001
fff8
fffd
ffec
fff5
fffa
fff8
0014
000e
0004
fff3
ffe6
0006
0000
ffe4
ffee
ffee
fff5
ffea
fffb
fffa
fff6
ffe7
fff0
fff7
0000
fffc
fff5
0001
fffd
fff2
fff8
fff7
fffd
0003
fff3
0017
0002
fff1
ffeb
ffe7
fffc
ffee
ffef
fff6
ffe9
ffec
fff7
ffed
fff2
ffe6
fff9
0005
fffb
0002
0001
0001
0004
0004
fffb
0006
0004
0001
fff6
0014
0008
0006
ffe9
ffee
fffb
ffe3
fff7
fffa
fff5
fff8
fffa
ffec
0004
fff6
0002
0002
000e
0005
fff9
0004
0001
fffc
0008
ffe9
ffff
ffed
000a
000d
000b
fff9
ffed
0003
0008
ffe5
0004
0005
fff9
0002
fff9
ffff
fff0
000d
001a
000c
000a
0002
ffef
0004
fff5
0001
fffa
0005
000f
000d
0004
ffe6
0009
fffa
0001
fff9
0014
fff7
fff4
0004
0000
fffa
0006
0000
0003
0021
0021
0014
0007
fff0
0002
000d
000f
0001
0003
001a
0013
fff7
ffff
ffff
0007
0003
000c
fffa
0015
0003
000c
0009
fffe
fffc
fffa
fffd
fffc
0018
0023
fffd
0000
fffa
fffc
0004
0011
0024
0025
0033
0037
ffff
000a
0013
fffc
fffc
0009
0010
000d
0010
0019
0014
0000
0019
0006
0001
0004
0015
0015
fffb
fffe
000f
0001
fff8
0008
001a
