0007
ffff
003e
003e
fffe
ffe2
ffe4
ffc3
ffe9
0015
ffca
000a
0027
ffd1
002d
ff7d
fffd
ffd3
ff9f
ff8c
ffb4
ffff
ffc9
003c
0009
000f
fff9
0046
0030
0039
ffc1
ffe2
0000
ffd0
0040
002f
ffaf
0071
fffd
002f
ffab
fffa
001c
000a
ffd1
ffea
ffc8
ffc7
ffc7
fff5
0028
fffa
ffed
ffa3
ffab
001c
004a
0036
006f
ffe3
ffd7
ffb1
0012
0020
0029
ffeb
0009
003e
001a
ff90
ffef
ffd7
000b
0048
001b
000d
000b
ffc6
0000
ffd5
ffef
0044
ffad
ffeb
003e
ffd4
0051
0057
004a
ffdf
ff91
ffe4
ff99
ffee
0027
ffd5
ffdc
0016
0019
ffe4
ffed
ffd3
ffe4
0020
ff8c
0027
0035
0007
ffc9
0014
ffbe
002f
ffcc
0026
ffbc
0049
000e
003e
fff1
ffec
ff86
fff6
0012
001b
ffde
000c
001d
0023
0013
ff90
ffb8
ffcb
0036
ff9a
ffe0
0014
001f
ff6a
ffc7
ffd4
003a
000c
0032
ff96
002e
0012
0047
003d
ffc8
ffd1
ffa9
ffc3
0022
ffac
006c
0017
ffe5
0005
ffd3
001f
004c
003e
ffcf
ff76
ffca
005f
0016
000f
0012
ffc6
0028
000e
ffbf
003b
0031
0042
ffc6
0021
000b
0038
0014
ffd1
0026
0013
0005
fffc
ffa1
ffe7
000f
0032
ffff
fff2
ffb3
ffe7
ffaf
ffc6
000f
0022
fffb
000f
0041
ffb9
ff73
ffc6
0015
0009
0005
ffe8
ffb8
002f
ffaa
ffbf
ffe1
ffd7
ff90
0004
0039
0032
0021
0047
0047
002e
fffc
0010
0005
ff92
0018
0034
ffe1
001f
0021
0013
0017
0044
0006
ffeb
ffbd
ffc2
0037
003b
0037
0005
fff7
0024
0048
002a
003c
0025
0035
ffe6
ffed
003e
0046
ffd9
ffaf
ffbb
ff9a
0008
ffd7
ffe5
0021
ffc6
0028
0036
ffef
ffdb
ff7a
003e
ffe2
ffe7
0025
0032
000e
fff7
ffb9
000d
ffe5
fffc
ffc8
ffc5
fff9
001e
ffa3
ff8c
ffa5
001e
fffc
0035
0000
ffd3
001e
000f
ffdb
0012
0003
ffdf
001c
0013
ffe6
0039
0033
ffe5
002a
0013
0041
ffa2
003d
002f
ff53
0033
ffbd
ff8a
fff6
fff3
ffe9
0019
ffeb
ffed
0015
ffdd